{
  "version": "1.0",
  "truncation": null,
  "padding": null,
  "added_tokens": [
    {
      "id": 0,
      "content": "<unk>",
      "single_word": false,
      "lstrip": false,
      "rstrip": false,
      "normalized": false,
      "special": true
    },
    {
      "id": 1,
      "content": "<s>",
      "single_word": false,
      "lstrip": false,
      "rstrip": false,
      "normalized": false,
      "special": true
    },
    {
      "id": 2,
      "content": "</s>",
      "single_word": false,
      "lstrip": false,
      "rstrip": false,
      "normalized": false,
      "special": true
    },
    {
      "id": 3,
      "content": "<pad>",
      "single_word": false,
      "lstrip": false,
      "rstrip": false,
      "normalized": false,
      "special": true
    }
  ],
  "normalizer": null,
  "pre_tokenizer": {
    "type": "Whitespace"
  },
  "post_processor": null,
  "decoder": null,
  "model": {
    "type": "BPE",
    "dropout": null,
    "unk_token": "<unk>",
    "continuing_subword_prefix": null,
    "end_of_word_suffix": null,
    "fuse_unk": false,
    "byte_fallback": false,
    "vocab": {
      "<unk>": 0,
      "<s>": 1,
      "</s>": 2,
      "<pad>": 3,
      "!": 4,
      "\"": 5,
      "(": 6,
      ")": 7,
      ",": 8,
      "-": 9,
      ".": 10,
      "0": 11,
      "1": 12,
      "2": 13,
      "3": 14,
      "4": 15,
      "5": 16,
      "6": 17,
      "7": 18,
      "8": 19,
      "9": 20,
      ":": 21,
      ";": 22,
      "?": 23,
      "A": 24,
      "B": 25,
      "C": 26,
      "D": 27,
      "E": 28,
      "F": 29,
      "G": 30,
      "H": 31,
      "I": 32,
      "J": 33,
      "K": 34,
      "L": 35,
      "M": 36,
      "N": 37,
      "O": 38,
      "P": 39,
      "Q": 40,
      "R": 41,
      "S": 42,
      "T": 43,
      "U": 44,
      "V": 45,
      "W": 46,
      "X": 47,
      "Y": 48,
      "Z": 49,
      "a": 50,
      "b": 51,
      "c": 52,
      "d": 53,
      "e": 54,
      "f": 55,
      "g": 56,
      "h": 57,
      "i": 58,
      "j": 59,
      "k": 60,
      "l": 61,
      "m": 62,
      "n": 63,
      "o": 64,
      "p": 65,
      "q": 66,
      "r": 67,
      "s": 68,
      "t": 69,
      "u": 70,
      "v": 71,
      "w": 72,
      "x": 73,
      "y": 74,
      "z": 75,
      "А": 76,
      "Б": 77,
      "В": 78,
      "Г": 79,
      "Д": 80,
      "Е": 81,
      "Ж": 82,
      "З": 83,
      "И": 84,
      "Й": 85,
      "К": 86,
      "Л": 87,
      "М": 88,
      "Н": 89,
      "О": 90,
      "П": 91,
      "Р": 92,
      "С": 93,
      "Т": 94,
      "У": 95,
      "Ф": 96,
      "Х": 97,
      "Ц": 98,
      "Ч": 99,
      "Ш": 100,
      "Щ": 101,
      "Ъ": 102,
      "Ы": 103,
      "Ь": 104,
      "Э": 105,
      "Ю": 106,
      "Я": 107,
      "а": 108,
      "б": 109,
      "в": 110,
      "г": 111,
      "д": 112,
      "е": 113,
      "ж": 114,
      "з": 115,
      "и": 116,
      "й": 117,
      "к": 118,
      "л": 119,
      "м": 120,
      "н": 121,
      "о": 122,
      "п": 123,
      "р": 124,
      "с": 125,
      "т": 126,
      "у": 127,
      "ф": 128,
      "х": 129,
      "ц": 130,
      "ч": 131,
      "ш": 132,
      "щ": 133,
      "ъ": 134,
      "ы": 135,
      "ь": 136,
      "э": 137,
      "ю": 138,
      "я": 139,
      "ё": 140,
      "то": 141,
      "но": 142,
      "на": 143,
      "не": 144,
      "по": 145,
      "ра": 146,
      "ст": 147,
      "ро": 148,
      "ко": 149,
      "ни": 150,
      "ли": 151,
      "ка": 152,
      "ре": 153,
      "\",": 154,
      "ть": 155,
      "го": 156,
      "ва": 157,
      "де": 158,
      "та": 159,
      "во": 160,
      "ль": 161,
      "те": 162,
      "да": 163,
      "за": 164,
      "ри": 165,
      "ло": 166,
      "ле": 167,
      "ме": 168,
      "ла": 169,
      "ны": 170,
      "мо": 171,
      "до": 172,
      "же": 173,
      "че": 174,
      "ки": 175,
      "ве": 176,
      "ся": 177,
      "про": 178,
      "ма": 179,
      "се": 180,
      "ти": 181,
      "бо": 182,
      "что": 183,
      "со": 184,
      "бы": 185,
      "ви": 186,
      "ру": 187,
      "ди": 188,
      "ми": 189,
      "вы": 190,
      "от": 191,
      "ет": 192,
      "это": 193,
      "ку": 194,
      "пе": 195,
      "хо": 196,
      "ля": 197,
      "ча": 198,
      "ста": 199,
      "си": 200,
      "чи": 201,
      "му": 202,
      "сто": 203,
      "ше": 204,
      "при": 205,
      "ну": 206,
      "па": 207,
      "са": 208,
      "из": 209,
      "об": 210,
      "ры": 211,
      "ты": 212,
      "бе": 213,
      "ци": 214,
      "пи": 215,
      "ду": 216,
      "раз": 217,
      "ня": 218,
      "ту": 219,
      "ще": 220,
      "все": 221,
      "сть": 222,
      "сь": 223,
      "..": 224,
      "как": 225,
      "лу": 226,
      "ют": 227,
      "бу": 228,
      "ба": 229,
      "ние": 230,
      "лю": 231,
      "га": 232,
      "нь": 233,
      "сти": 234,
      "жи": 235,
      "льно": 236,
      "ги": 237,
      "ши": 238,
      "ния": 239,
      "ско": 240,
      "нно": 241,
      "жно": 242,
      "сли": 243,
      "ный": 244,
      "це": 245,
      "су": 246,
      "ные": 247,
      "так": 248,
      "пре": 249,
      "лько": 250,
      "ски": 251,
      "би": 252,
      "мы": 253,
      "под": 254,
      "вать": 255,
      "гда": 256,
      "ак": 257,
      "он": 258,
      "ря": 259,
      "По": 260,
      "жа": 261,
      "ке": 262,
      "чно": 263,
      "пра": 264,
      "кото": 265,
      "ком": 266,
      "ин": 267,
      "ска": 268,
      "щи": 269,
      "тся": 270,
      "пу": 271,
      "шь": 272,
      "зна": 273,
      "ется": 274,
      "ных": 275,
      "кой": 276,
      "пере": 277,
      "рабо": 278,
      "00": 279,
      "ву": 280,
      "пла": 281,
      "том": 282,
      "ды": 283,
      "тре": 284,
      "вно": 285,
      "дно": 286,
      "сле": 287,
      "вер": 288,
      "для": 289,
      "гу": 290,
      "или": 291,
      "если": 292,
      "сво": 293,
      "ная": 294,
      "дет": 295,
      "ху": 296,
      "фи": 297,
      "ша": 298,
      "можно": 299,
      "дела": 300,
      "только": 301,
      "там": 302,
      "боль": 303,
      "сте": 304,
      "спо": 305,
      "фо": 306,
      "кон": 307,
      "есть": 308,
      "нет": 309,
      "гра": 310,
      "лы": 311,
      "меня": 312,
      "зо": 313,
      "чем": 314,
      "ха": 315,
      "стра": 316,
      "...": 317,
      "рас": 318,
      "уже": 319,
      "пер": 320,
      "которы": 321,
      "кто": 322,
      "зи": 323,
      "ство": 324,
      "зы": 325,
      "ят": 326,
      "его": 327,
      "ться": 328,
      "На": 329,
      "было": 330,
      "жет": 331,
      "обще": 332,
      "мен": 333,
      "тра": 334,
      "ров": 335,
      "вре": 336,
      "ей": 337,
      "их": 338,
      "лся": 339,
      "ем": 340,
      "дру": 341,
      "ного": 342,
      "вот": 343,
      "дол": 344,
      "просто": 345,
      "стве": 346,
      "Но": 347,
      "сы": 348,
      "смо": 349,
      "ции": 350,
      "они": 351,
      "лет": 352,
      "слу": 353,
      "сло": 354,
      "нима": 355,
      "мер": 356,
      "ге": 357,
      "ходи": 358,
      "ков": 359,
      "будет": 360,
      "Ну": 361,
      "воз": 362,
      "тель": 363,
      "Не": 364,
      "мне": 365,
      "когда": 366,
      "Да": 367,
      "сно": 368,
      "гово": 369,
      "кра": 370,
      "даже": 371,
      "пол": 372,
      "вто": 373,
      "вс": 374,
      "оче": 375,
      "бле": 376,
      "чу": 377,
      "таки": 378,
      "Это": 379,
      "дь": 380,
      "тельно": 381,
      "ща": 382,
      "мя": 383,
      "ным": 384,
      "нии": 385,
      "вле": 386,
      "сси": 387,
      "ца": 388,
      "полу": 389,
      "стро": 390,
      "бя": 391,
      "ск": 392,
      "рма": 393,
      "три": 394,
      "пы": 395,
      "тов": 396,
      "может": 397,
      "тоже": 398,
      "она": 399,
      "работа": 400,
      "тер": 401,
      "име": 402,
      "без": 403,
      "чита": 404,
      "вля": 405,
      "чего": 406,
      "тно": 407,
      "нас": 408,
      "20": 409,
      "нее": 410,
      "больше": 411,
      "еще": 412,
      "час": 413,
      "был": 414,
      "пред": 415,
      "после": 416,
      "дей": 417,
      "само": 418,
      "оста": 419,
      "где": 420,
      "ются": 421,
      "За": 422,
      "вой": 423,
      "Мо": 424,
      "эти": 425,
      "чески": 426,
      "щё": 427,
      "каза": 428,
      "кого": 429,
      "лись": 430,
      "ан": 431,
      "ную": 432,
      "рез": 433,
      "лось": 434,
      "Если": 435,
      "ства": 436,
      "сту": 437,
      "тут": 438,
      "ез": 439,
      "рова": 440,
      "кла": 441,
      "гла": 442,
      "ция": 443,
      "надо": 444,
      "ника": 445,
      "много": 446,
      "вет": 447,
      "кры": 448,
      "дер": 449,
      "очень": 450,
      "теле": 451,
      "пло": 452,
      "вообще": 453,
      "тому": 454,
      "всё": 455,
      "ешь": 456,
      "ний": 457,
      "них": 458,
      "фе": 459,
      "шо": 460,
      "бра": 461,
      "сов": 462,
      "года": 463,
      "одно": 464,
      "дума": 465,
      "виде": 466,
      "лове": 467,
      "писа": 468,
      "ней": 469,
      "спе": 470,
      "Про": 471,
      "ещё": 472,
      "чтобы": 473,
      "стоя": 474,
      "!!": 475,
      "То": 476,
      "зыва": 477,
      "им": 478,
      "тро": 479,
      "кая": 480,
      "жен": 481,
      "день": 482,
      "боле": 483,
      "чему": 484,
      "которые": 485,
      "жу": 486,
      "ёт": 487,
      "10": 488,
      "Так": 489,
      "нача": 490,
      "ной": 491,
      "ред": 492,
      "ню": 493,
      "доро": 494,
      "Ко": 495,
      "кар": 496,
      "прави": 497,
      "того": 498,
      "вод": 499,
      "зу": 500,
      "ер": 501,
      "этого": 502,
      "ход": 503,
      "дут": 504,
      "ющи": 505,
      "тере": 506,
      "кре": 507,
      "дом": 508,
      "вый": 509,
      "кие": 510,
      "нов": 511,
      "челове": 512,
      "стви": 513,
      "Ка": 514,
      "хоро": 515,
      "хуй": 516,
      "стои": 517,
      "луч": 518,
      "еба": 519,
      "оди": 520,
      "нт": 521,
      "ник": 522,
      "время": 523,
      "сей": 524,
      "случа": 525,
      "зя": 526,
      "могу": 527,
      "авто": 528,
      "хи": 529,
      "ром": 530,
      "кое": 531,
      "пример": 532,
      "тя": 533,
      "Как": 534,
      "нный": 535,
      "шу": 536,
      "вые": 537,
      "жда": 538,
      "сколько": 539,
      "вя": 540,
      "вали": 541,
      "делать": 542,
      "гру": 543,
      "вает": 544,
      "быть": 545,
      "Ро": 546,
      "нные": 547,
      "фа": 548,
      "потом": 549,
      "лек": 550,
      "кру": 551,
      "сла": 552,
      "цы": 553,
      "него": 554,
      "од": 555,
      "рт": 556,
      "сейчас": 557,
      "лась": 558,
      ").": 559,
      "говори": 560,
      "вро": 561,
      "При": 562,
      "горо": 563,
      "были": 564,
      "Что": 565,
      "бля": 566,
      "стре": 567,
      "ской": 568,
      "поня": 569,
      "Во": 570,
      "ально": 571,
      "Та": 572,
      "обо": 573,
      "ное": 574,
      "этом": 575,
      "более": 576,
      "лов": 577,
      "йте": 578,
      "пока": 579,
      "ственно": 580,
      "нию": 581,
      "),": 582,
      "пиз": 583,
      "сты": 584,
      "логи": 585,
      "тем": 586,
      "ству": 587,
      "ньше": 588,
      "ква": 589,
      "год": 590,
      "вая": 591,
      "ар": 592,
      "клю": 593,
      "норма": 594,
      "доб": 595,
      "ис": 596,
      "такой": 597,
      "кро": 598,
      "лучше": 599,
      "смотре": 600,
      "води": 601,
      "Вот": 602,
      "тор": 603,
      "нужно": 604,
      "ский": 605,
      "тех": 606,
      "коне": 607,
      "сказа": 608,
      "бли": 609,
      "рус": 610,
      "пор": 611,
      "была": 612,
      "разу": 613,
      "тив": 614,
      "отя": 615,
      "стави": 616,
      "интере": 617,
      "через": 618,
      "вал": 619,
      "вари": 620,
      "нием": 621,
      "вра": 622,
      "жиз": 623,
      "точно": 624,
      "всем": 625,
      "аль": 626,
      "ками": 627,
      "сам": 628,
      "Ра": 629,
      "тебя": 630,
      "вое": 631,
      "ными": 632,
      "тить": 633,
      "кую": 634,
      "рой": 635,
      "пробле": 636,
      "дов": 637,
      "потому": 638,
      "цен": 639,
      "тру": 640,
      "мени": 641,
      "ких": 642,
      "мой": 643,
      "произ": 644,
      "сра": 645,
      "чь": 646,
      "поч": 647,
      "вают": 648,
      "два": 649,
      "прав": 650,
      "ничего": 651,
      "рен": 652,
      "ского": 653,
      "испо": 654,
      "чет": 655,
      "счита": 656,
      "ники": 657,
      "Вы": 658,
      "100": 659,
      "всех": 660,
      "нных": 661,
      "пле": 662,
      "рь": 663,
      "жде": 664,
      "каж": 665,
      "цию": 666,
      "всего": 667,
      "поли": 668,
      "льзо": 669,
      "бан": 670,
      "получа": 671,
      "вых": 672,
      "обы": 673,
      "вания": 674,
      "прода": 675,
      "купа": 676,
      "пидо": 677,
      "один": 678,
      "Со": 679,
      "почему": 680,
      "какой": 681,
      "ваться": 682,
      "друго": 683,
      "ему": 684,
      "который": 685,
      ".\",": 686,
      "юсь": 687,
      "Росси": 688,
      "этот": 689,
      "себе": 690,
      "пя": 691,
      "ём": 692,
      "тебе": 693,
      "хох": 694,
      "бира": 695,
      "чки": 696,
      "ТО": 697,
      "фор": 698,
      "Ты": 699,
      "мар": 700,
      "маши": 701,
      "меся": 702,
      "себя": 703,
      "ор": 704,
      "этому": 705,
      "тогда": 706,
      "лом": 707,
      "бой": 708,
      "други": 709,
      "ках": 710,
      "доста": 711,
      "соб": 712,
      "будут": 713,
      "ходит": 714,
      "50": 715,
      "дар": 716,
      "ном": 717,
      "куда": 718,
      "понима": 719,
      "деле": 720,
      "стоит": 721,
      "тво": 722,
      "всегда": 723,
      "ские": 724,
      "филь": 725,
      "сред": 726,
      "дя": 727,
      "йти": 728,
      "нем": 729,
      "возможно": 730,
      "получи": 731,
      "201": 732,
      "нг": 733,
      "объ": 734,
      "обра": 735,
      "деньги": 736,
      "Все": 737,
      "жо": 738,
      "конечно": 739,
      "пря": 740,
      "вся": 741,
      "ним": 742,
      "вопро": 743,
      "люди": 744,
      "рю": 745,
      "вание": 746,
      "рии": 747,
      "сторо": 748,
      "иг": 749,
      "рти": 750,
      "мину": 751,
      "людей": 752,
      "знаю": 753,
      "НА": 754,
      "шка": 755,
      "дит": 756,
      "ен": 757,
      "выше": 758,
      "кти": 759,
      "эк": 760,
      "тели": 761,
      "льный": 762,
      "бор": 763,
      "ских": 764,
      "случае": 765,
      "ете": 766,
      "пара": 767,
      "могут": 768,
      "пом": 769,
      "либо": 770,
      "перь": 771,
      "теля": 772,
      "такие": 773,
      "послед": 774,
      "нег": 775,
      "ская": 776,
      "игра": 777,
      "фак": 778,
      "туа": 779,
      "исто": 780,
      "спа": 781,
      "отно": 782,
      "Ва": 783,
      "поло": 784,
      "рави": 785,
      "вас": 786,
      "зад": 787,
      "зда": 788,
      "мент": 789,
      "вне": 790,
      "сни": 791,
      "нуть": 792,
      "зво": 793,
      "осо": 794,
      "хва": 795,
      "стью": 796,
      "такое": 797,
      "сме": 798,
      "голо": 799,
      "человек": 800,
      "кор": 801,
      "купи": 802,
      "чит": 803,
      "Ни": 804,
      "кий": 805,
      "пера": 806,
      "еха": 807,
      "све": 808,
      "ран": 809,
      "сдела": 810,
      "шко": 811,
      "эта": 812,
      "СС": 813,
      "вши": 814,
      "сс": 815,
      "дели": 816,
      "чина": 817,
      "учи": 818,
      "ток": 819,
      "стати": 820,
      "жить": 821,
      "пита": 822,
      "нной": 823,
      "ее": 824,
      "ровать": 825,
      "дви": 826,
      "вается": 827,
      "гля": 828,
      "той": 829,
      "коно": 830,
      "вроде": 831,
      "30": 832,
      "шки": 833,
      "тия": 834,
      "До": 835,
      "КА": 836,
      "сразу": 837,
      "мало": 838,
      "иде": 839,
      "хотя": 840,
      "например": 841,
      "сибо": 842,
      "интер": 843,
      "мента": 844,
      "РА": 845,
      "кри": 846,
      "чка": 847,
      "чный": 848,
      "ников": 849,
      "дело": 850,
      "льные": 851,
      "рубле": 852,
      "ответ": 853,
      "образ": 854,
      "Хо": 855,
      "ут": 856,
      "вам": 857,
      "жны": 858,
      "явля": 859,
      "коло": 860,
      "льзу": 861,
      "хоть": 862,
      "От": 863,
      "кли": 864,
      "льше": 865,
      "давно": 866,
      "нах": 867,
      "покупа": 868,
      "низ": 869,
      "меньше": 870,
      "именно": 871,
      "Са": 872,
      "дра": 873,
      "тки": 874,
      "уда": 875,
      "этой": 876,
      "свои": 877,
      "Ма": 878,
      "нка": 879,
      "кому": 880,
      "али": 881,
      "пой": 882,
      "чер": 883,
      "систе": 884,
      "гре": 885,
      "мага": 886,
      "больши": 887,
      "ек": 888,
      "цу": 889,
      "вели": 890,
      "рублей": 891,
      "цо": 892,
      "нали": 893,
      "никто": 894,
      "будь": 895,
      "лли": 896,
      "мно": 897,
      "заме": 898,
      "зе": 899,
      "ал": 900,
      "рить": 901,
      "вез": 902,
      "нного": 903,
      "действи": 904,
      "15": 905,
      "компа": 906,
      "фото": 907,
      "стру": 908,
      "пыта": 909,
      "НЕ": 910,
      "осно": 911,
      "жение": 912,
      "строи": 913,
      "дово": 914,
      "самы": 915,
      "хуе": 916,
      "тот": 917,
      "тери": 918,
      "теперь": 919,
      "Ве": 920,
      "ью": 921,
      "над": 922,
      "тей": 923,
      "дома": 924,
      "России": 925,
      "сса": 926,
      "таких": 927,
      "вку": 928,
      "место": 929,
      "отли": 930,
      "цев": 931,
      "рая": 932,
      "такая": 933,
      "шел": 934,
      "смотреть": 935,
      "телей": 936,
      "жизни": 937,
      "нта": 938,
      "род": 939,
      "чество": 940,
      "види": 941,
      "200": 942,
      "Мне": 943,
      "ПО": 944,
      "уж": 945,
      "помо": 946,
      "кол": 947,
      "откры": 948,
      "ья": 949,
      "назад": 950,
      "дать": 951,
      "рия": 952,
      "жения": 953,
      "сами": 954,
      "Там": 955,
      "кажды": 956,
      "ША": 957,
      "вз": 958,
      "нци": 959,
      "свя": 960,
      "кан": 961,
      "сит": 962,
      "жду": 963,
      "нрави": 964,
      "судар": 965,
      "усло": 966,
      "част": 967,
      "нормально": 968,
      "еди": 969,
      "гов": 970,
      "высо": 971,
      "пять": 972,
      "КО": 973,
      "хра": 974,
      "какие": 975,
      "РО": 976,
      "ок": 977,
      "чные": 978,
      "сер": 979,
      "вла": 980,
      "ново": 981,
      "написа": 982,
      "вай": 983,
      "совсем": 984,
      "мини": 985,
      "форма": 986,
      "сделать": 987,
      "нови": 988,
      "раза": 989,
      "плохо": 990,
      "нок": 991,
      "созда": 992,
      "ситуа": 993,
      "хорошо": 994,
      "Те": 995,
      "нная": 996,
      "элек": 997,
      "нам": 998,
      "ведь": 999,
      "мина": 1000,
      "которых": 1001,
      "почти": 1002,
      "реально": 1003,
      "месте": 1004,
      "Де": 1005,
      "юще": 1006,
      "говно": 1007,
      "государ": 1008,
      "суще": 1009,
      "тай": 1010,
      "нки": 1011,
      "уме": 1012,
      "дель": 1013,
      "тит": 1014,
      "любо": 1015,
      "Просто": 1016,
      "гли": 1017,
      "ид": 1018,
      "нить": 1019,
      "моло": 1020,
      "шей": 1021,
      "хуя": 1022,
      "бло": 1023,
      "рок": 1024,
      "лез": 1025,
      "чения": 1026,
      "ряд": 1027,
      "вую": 1028,
      "40": 1029,
      "эту": 1030,
      "зави": 1031,
      "видео": 1032,
      "обычно": 1033,
      "чку": 1034,
      "нибудь": 1035,
      "деше": 1036,
      "её": 1037,
      "нер": 1038,
      "льзя": 1039,
      "пару": 1040,
      "работы": 1041,
      "держа": 1042,
      "пидора": 1043,
      "Бо": 1044,
      "США": 1045,
      "сви": 1046,
      "равно": 1047,
      "стно": 1048,
      "брать": 1049,
      "кономи": 1050,
      "Или": 1051,
      "сня": 1052,
      "дить": 1053,
      "обя": 1054,
      "нное": 1055,
      "работать": 1056,
      "вли": 1057,
      "тора": 1058,
      "стри": 1059,
      "рее": 1060,
      "став": 1061,
      "шение": 1062,
      "грани": 1063,
      "19": 1064,
      "нако": 1065,
      "Го": 1066,
      "полне": 1067,
      "кси": 1068,
      "лё": 1069,
      "лки": 1070,
      "спи": 1071,
      "шта": 1072,
      "шло": 1073,
      "ском": 1074,
      "офи": 1075,
      "фон": 1076,
      "хе": 1077,
      "сом": 1078,
      "вариан": 1079,
      "шли": 1080,
      "лен": 1081,
      "чение": 1082,
      "прове": 1083,
      "стов": 1084,
      "рят": 1085,
      "НО": 1086,
      "Пи": 1087,
      "похо": 1088,
      "рак": 1089,
      "Из": 1090,
      "ТЕ": 1091,
      "смы": 1092,
      "ёл": 1093,
      "денег": 1094,
      "бла": 1095,
      "тон": 1096,
      "нера": 1097,
      "потре": 1098,
      "рот": 1099,
      "орга": 1100,
      "??": 1101,
      "взя": 1102,
      "щу": 1103,
      "мет": 1104,
      "проце": 1105,
      "обяза": 1106,
      "сю": 1107,
      "экономи": 1108,
      "нор": 1109,
      "обе": 1110,
      "которо": 1111,
      "кварти": 1112,
      ".,": 1113,
      "нельзя": 1114,
      "реги": 1115,
      "льных": 1116,
      "зар": 1117,
      "лень": 1118,
      "пен": 1119,
      "пар": 1120,
      "бес": 1121,
      "грам": 1122,
      "каждый": 1123,
      "яви": 1124,
      "такого": 1125,
      "типа": 1126,
      "плат": 1127,
      "Есть": 1128,
      "Ки": 1129,
      "уста": 1130,
      "пода": 1131,
      "рекла": 1132,
      "ставля": 1133,
      "большо": 1134,
      "ставить": 1135,
      "НИ": 1136,
      "бро": 1137,
      "нару": 1138,
      "кам": 1139,
      "тил": 1140,
      "ший": 1141,
      "вление": 1142,
      "работает": 1143,
      "ради": 1144,
      "занима": 1145,
      "вопрос": 1146,
      "ГО": 1147,
      "това": 1148,
      "реди": 1149,
      "дера": 1150,
      "зако": 1151,
      "перед": 1152,
      "опре": 1153,
      "тол": 1154,
      "роди": 1155,
      "реши": 1156,
      "году": 1157,
      "своей": 1158,
      "использо": 1159,
      "пли": 1160,
      "наз": 1161,
      "несколько": 1162,
      "стя": 1163,
      "росси": 1164,
      "пусти": 1165,
      "шая": 1166,
      "Ин": 1167,
      "Сей": 1168,
      "иск": 1169,
      "нк": 1170,
      "вос": 1171,
      "весь": 1172,
      "пада": 1173,
      "ское": 1174,
      "Почему": 1175,
      "смотри": 1176,
      "этих": 1177,
      "ющих": 1178,
      "производ": 1179,
      "опера": 1180,
      "кана": 1181,
      "дец": 1182,
      "запре": 1183,
      "стать": 1184,
      "шения": 1185,
      "тран": 1186,
      "Может": 1187,
      "начала": 1188,
      "er": 1189,
      "Ре": 1190,
      "чная": 1191,
      "ваю": 1192,
      "тен": 1193,
      "жела": 1194,
      "тыся": 1195,
      "ходить": 1196,
      "полно": 1197,
      "думаю": 1198,
      "Сейчас": 1199,
      "уль": 1200,
      "лага": 1201,
      "пуска": 1202,
      "Для": 1203,
      "Пе": 1204,
      "дро": 1205,
      "тари": 1206,
      "тел": 1207,
      "отве": 1208,
      "разви": 1209,
      "буду": 1210,
      "време": 1211,
      "ВА": 1212,
      "слы": 1213,
      "показа": 1214,
      "лей": 1215,
      "кур": 1216,
      "строй": 1217,
      "специ": 1218,
      "другой": 1219,
      "помню": 1220,
      "ЛИ": 1221,
      "блю": 1222,
      "дли": 1223,
      "жж": 1224,
      "ито": 1225,
      "лег": 1226,
      "тин": 1227,
      "часто": 1228,
      "часть": 1229,
      "туда": 1230,
      "Только": 1231,
      "Он": 1232,
      "ТА": 1233,
      "пользо": 1234,
      "ман": 1235,
      "принци": 1236,
      "значит": 1237,
      "свой": 1238,
      "фу": 1239,
      "лично": 1240,
      "гото": 1241,
      "согла": 1242,
      "рую": 1243,
      "нул": 1244,
      "работ": 1245,
      "этим": 1246,
      "видел": 1247,
      "город": 1248,
      "Нет": 1249,
      "уди": 1250,
      "шего": 1251,
      "тый": 1252,
      "ден": 1253,
      "мене": 1254,
      "между": 1255,
      "сол": 1256,
      "бер": 1257,
      "интересно": 1258,
      "дят": 1259,
      "ев": 1260,
      "подоб": 1261,
      "селе": 1262,
      "сильно": 1263,
      "скоро": 1264,
      "комп": 1265,
      "дной": 1266,
      "времени": 1267,
      "держи": 1268,
      "Ме": 1269,
      "дву": 1270,
      "около": 1271,
      "сма": 1272,
      "ссы": 1273,
      "называ": 1274,
      "каче": 1275,
      "против": 1276,
      "части": 1277,
      "стан": 1278,
      "свобо": 1279,
      "смот": 1280,
      "ющий": 1281,
      "жна": 1282,
      "опла": 1283,
      "поэтому": 1284,
      "защи": 1285,
      "быд": 1286,
      "сут": 1287,
      "графи": 1288,
      "сказать": 1289,
      "услови": 1290,
      "12": 1291,
      "80": 1292,
      "Пу": 1293,
      "глу": 1294,
      "уби": 1295,
      "тами": 1296,
      "вода": 1297,
      "мов": 1298,
      "которая": 1299,
      "правильно": 1300,
      "образо": 1301,
      "Они": 1302,
      "две": 1303,
      "шно": 1304,
      "шла": 1305,
      "вого": 1306,
      "дой": 1307,
      "жется": 1308,
      "свою": 1309,
      "шать": 1310,
      "плю": 1311,
      "начина": 1312,
      "мум": 1313,
      "столько": 1314,
      "живу": 1315,
      "гие": 1316,
      "имеет": 1317,
      "думал": 1318,
      "магази": 1319,
      "Спа": 1320,
      "Хотя": 1321,
      "рай": 1322,
      "дальше": 1323,
      "чить": 1324,
      "Когда": 1325,
      "иди": 1326,
      "уч": 1327,
      "нами": 1328,
      "постоя": 1329,
      "позво": 1330,
      "коли": 1331,
      "лам": 1332,
      "проду": 1333,
      "должен": 1334,
      "Су": 1335,
      "какая": 1336,
      "зачем": 1337,
      "закры": 1338,
      "мость": 1339,
      "сить": 1340,
      "зарпла": 1341,
      "ино": 1342,
      "навер": 1343,
      "рит": 1344,
      "места": 1345,
      "право": 1346,
      "месяц": 1347,
      "ссо": 1348,
      "соба": 1349,
      "люби": 1350,
      "должно": 1351,
      "всю": 1352,
      "самое": 1353,
      "ходят": 1354,
      "Бы": 1355,
      "ремо": 1356,
      "печа": 1357,
      "вное": 1358,
      "понятно": 1359,
      "ТЬ": 1360,
      "зем": 1361,
      "нным": 1362,
      "муж": 1363,
      "других": 1364,
      "вка": 1365,
      "нство": 1366,
      "лишь": 1367,
      "моби": 1368,
      "ющие": 1369,
      "правда": 1370,
      "ДА": 1371,
      "дре": 1372,
      "поте": 1373,
      "тах": 1374,
      "льная": 1375,
      "тически": 1376,
      "нном": 1377,
      "жизнь": 1378,
      "60": 1379,
      "90": 1380,
      "Па": 1381,
      "ску": 1382,
      "успе": 1383,
      "матери": 1384,
      "мир": 1385,
      "циона": 1386,
      "жать": 1387,
      "практи": 1388,
      "!!!": 1389,
      "человека": 1390,
      "Спасибо": 1391,
      "вполне": 1392,
      "крас": 1393,
      "уни": 1394,
      "ности": 1395,
      "нало": 1396,
      "раньше": 1397,
      "комму": 1398,
      "одной": 1399,
      "понимаю": 1400,
      "кни": 1401,
      "оно": 1402,
      "нес": 1403,
      "дере": 1404,
      "детей": 1405,
      "тал": 1406,
      "мости": 1407,
      "вить": 1408,
      "ляр": 1409,
      "обла": 1410,
      "купить": 1411,
      "Че": 1412,
      "уче": 1413,
      "коро": 1414,
      "момент": 1415,
      "чие": 1416,
      "тые": 1417,
      "должны": 1418,
      "Моск": 1419,
      "вести": 1420,
      "хода": 1421,
      "краи": 1422,
      "вления": 1423,
      "проблема": 1424,
      "70": 1425,
      "подо": 1426,
      "пожа": 1427,
      "сосе": 1428,
      "сили": 1429,
      "нут": 1430,
      "тупо": 1431,
      "друг": 1432,
      "край": 1433,
      "использу": 1434,
      "фильм": 1435,
      "500": 1436,
      "РИ": 1437,
      "Ста": 1438,
      "ян": 1439,
      "деби": 1440,
      "вым": 1441,
      "стал": 1442,
      "льного": 1443,
      "in": 1444,
      "удоб": 1445,
      "чёт": 1446,
      "вался": 1447,
      "десь": 1448,
      "дале": 1449,
      "мест": 1450,
      "холо": 1451,
      "ций": 1452,
      "сум": 1453,
      "объя": 1454,
      "Си": 1455,
      "уро": 1456,
      "ули": 1457,
      "може": 1458,
      "бенно": 1459,
      "Даже": 1460,
      "РЕ": 1461,
      "тка": 1462,
      "ум": 1463,
      "нахуй": 1464,
      "попро": 1465,
      "никогда": 1466,
      "кажется": 1467,
      "зации": 1468,
      "рий": 1469,
      "сен": 1470,
      "милли": 1471,
      "сложно": 1472,
      "гло": 1473,
      "спра": 1474,
      "язы": 1475,
      "ств": 1476,
      "деть": 1477,
      "воду": 1478,
      "ким": 1479,
      "веде": 1480,
      "льное": 1481,
      "слова": 1482,
      "игры": 1483,
      "минут": 1484,
      "электро": 1485,
      "ВО": 1486,
      "зре": 1487,
      "кт": 1488,
      "скую": 1489,
      "рей": 1490,
      "тек": 1491,
      "закон": 1492,
      "мом": 1493,
      "....": 1494,
      "платить": 1495,
      "лый": 1496,
      "менты": 1497,
      "дорого": 1498,
      "кроме": 1499,
      "итоге": 1500,
      "ДЕ": 1501,
      "воды": 1502,
      "чек": 1503,
      "мая": 1504,
      "диа": 1505,
      "изи": 1506,
      "буде": 1507,
      "следо": 1508,
      "ульта": 1509,
      "300": 1510,
      "Бе": 1511,
      "ап": 1512,
      "шком": 1513,
      "ность": 1514,
      "каме": 1515,
      "зака": 1516,
      "изо": 1517,
      "предло": 1518,
      "сказал": 1519,
      "экс": 1520,
      "ЛА": 1521,
      "дня": 1522,
      "емы": 1523,
      "шёл": 1524,
      "поста": 1525,
      "дел": 1526,
      "деся": 1527,
      "сем": 1528,
      "работу": 1529,
      "телефо": 1530,
      "Об": 1531,
      "Оче": 1532,
      "лиз": 1533,
      "дал": 1534,
      "состоя": 1535,
      "бере": 1536,
      "страны": 1537,
      "ключа": 1538,
      "действительно": 1539,
      "Ли": 1540,
      "уров": 1541,
      "шку": 1542,
      "чей": 1543,
      "совет": 1544,
      "пей": 1545,
      "часов": 1546,
      "цена": 1547,
      "одного": 1548,
      "11": 1549,
      "Мы": 1550,
      "нд": 1551,
      "узна": 1552,
      "наде": 1553,
      "моз": 1554,
      "макси": 1555,
      "видно": 1556,
      "тура": 1557,
      "скорее": 1558,
      "шает": 1559,
      "гражда": 1560,
      "случай": 1561,
      "одна": 1562,
      "достаточно": 1563,
      "органи": 1564,
      "Тут": 1565,
      "вну": 1566,
      "дней": 1567,
      "сё": 1568,
      "чных": 1569,
      "населе": 1570,
      "вала": 1571,
      "соци": 1572,
      "лять": 1573,
      "льной": 1574,
      "шие": 1575,
      "своих": 1576,
      "таким": 1577,
      "Можно": 1578,
      "коле": 1579,
      "мери": 1580,
      "сил": 1581,
      "сих": 1582,
      "любой": 1583,
      "Потому": 1584,
      "верх": 1585,
      "города": 1586,
      "an": 1587,
      "сро": 1588,
      "капита": 1589,
      "доба": 1590,
      "числе": 1591,
      "принима": 1592,
      "нять": 1593,
      "страхо": 1594,
      "щая": 1595,
      "результа": 1596,
      "примерно": 1597,
      "является": 1598,
      "Ба": 1599,
      "ТС": 1600,
      "дки": 1601,
      "найти": 1602,
      "пора": 1603,
      "тает": 1604,
      "ших": 1605,
      "также": 1606,
      "блять": 1607,
      "исклю": 1608,
      "АА": 1609,
      "кло": 1610,
      "оши": 1611,
      "эф": 1612,
      "нения": 1613,
      "лить": 1614,
      "проти": 1615,
      "програм": 1616,
      "сек": 1617,
      "После": 1618,
      "стей": 1619,
      "говорит": 1620,
      "КИ": 1621,
      "МО": 1622,
      "иска": 1623,
      "ору": 1624,
      "годно": 1625,
      "мира": 1626,
      "отка": 1627,
      "тред": 1628,
      "зывать": 1629,
      "тысяч": 1630,
      "ЗА": 1631,
      "пру": 1632,
      "ях": 1633,
      "ёр": 1634,
      "запа": 1635,
      "тие": 1636,
      "бом": 1637,
      "вижу": 1638,
      "изве": 1639,
      "самом": 1640,
      "Раз": 1641,
      "производи": 1642,
      "другие": 1643,
      "быдло": 1644,
      "ЛО": 1645,
      "зву": 1646,
      "уве": 1647,
      "нау": 1648,
      "догово": 1649,
      "проще": 1650,
      "малень": 1651,
      "рует": 1652,
      "цией": 1653,
      "живот": 1654,
      "лые": 1655,
      "понял": 1656,
      "ствует": 1657,
      "ЛЬ": 1658,
      "СР": 1659,
      "км": 1660,
      "оказа": 1661,
      "ье": 1662,
      "ваются": 1663,
      "тая": 1664,
      "тера": 1665,
      "запи": 1666,
      "мере": 1667,
      "проис": 1668,
      "совер": 1669,
      "вино": 1670,
      "тых": 1671,
      "информа": 1672,
      "знако": 1673,
      "стране": 1674,
      "долго": 1675,
      "смотрел": 1676,
      "интерес": 1677,
      "ждения": 1678,
      "получается": 1679,
      "большой": 1680,
      "ат": 1681,
      "встре": 1682,
      "дво": 1683,
      "ина": 1684,
      "ог": 1685,
      "хот": 1686,
      "энер": 1687,
      "ница": 1688,
      "вок": 1689,
      "чтоб": 1690,
      "следу": 1691,
      "ствен": 1692,
      "чув": 1693,
      "кредит": 1694,
      "груп": 1695,
      "струк": 1696,
      "нравится": 1697,
      "дешевле": 1698,
      "on": 1699,
      "Где": 1700,
      "Лю": 1701,
      "внима": 1702,
      "здесь": 1703,
      "укра": 1704,
      "ван": 1705,
      "шек": 1706,
      "спорт": 1707,
      "способ": 1708,
      "ческий": 1709,
      "труд": 1710,
      "спасибо": 1711,
      "вариант": 1712,
      "постоянно": 1713,
      "РФ": 1714,
      "лка": 1715,
      "ске": 1716,
      "пост": 1717,
      "продол": 1718,
      "тили": 1719,
      "куп": 1720,
      "цены": 1721,
      "делают": 1722,
      "спор": 1723,
      "блядь": 1724,
      "СССР": 1725,
      "пенси": 1726,
      "штра": 1727,
      "необ": 1728,
      "лан": 1729,
      "док": 1730,
      "собира": 1731,
      "нужен": 1732,
      "обща": 1733,
      "тур": 1734,
      "конце": 1735,
      "чуть": 1736,
      "ходя": 1737,
      "проблемы": 1738,
      "принципе": 1739,
      "двух": 1740,
      "Ку": 1741,
      "оне": 1742,
      "ори": 1743,
      "наро": 1744,
      "ними": 1745,
      "дают": 1746,
      "заня": 1747,
      "мор": 1748,
      "чик": 1749,
      "ским": 1750,
      "которой": 1751,
      "генера": 1752,
      "25": 1753,
      "Всё": 1754,
      "ана": 1755,
      "ограни": 1756,
      "спро": 1757,
      "ётся": 1758,
      "рам": 1759,
      "рами": 1760,
      "вом": 1761,
      "пить": 1762,
      "хуже": 1763,
      "зор": 1764,
      "служи": 1765,
      "читать": 1766,
      "ступа": 1767,
      "хохлы": 1768,
      "стороны": 1769,
      "особо": 1770,
      "аб": 1771,
      "вни": 1772,
      "зин": 1773,
      "мм": 1774,
      "сл": 1775,
      "ума": 1776,
      "услу": 1777,
      "роли": 1778,
      "тар": 1779,
      "пери": 1780,
      "краси": 1781,
      "говорить": 1782,
      "городе": 1783,
      "хохлов": 1784,
      "интерне": 1785,
      "18": 1786,
      "?)": 1787,
      "Ско": 1788,
      "Украи": 1789,
      "опять": 1790,
      "пси": 1791,
      "шке": 1792,
      "немного": 1793,
      "реза": 1794,
      "менее": 1795,
      "проек": 1796,
      "щий": 1797,
      "друга": 1798,
      "женщи": 1799,
      "норм": 1800,
      "РУ": 1801,
      "оп": 1802,
      "счет": 1803,
      "шлю": 1804,
      "тан": 1805,
      "лай": 1806,
      "доку": 1807,
      "чен": 1808,
      "сове": 1809,
      "соответ": 1810,
      "куль": 1811,
      "ствие": 1812,
      "собственно": 1813,
      "МИ": 1814,
      "нологи": 1815,
      "кабу": 1816,
      "лах": 1817,
      "китай": 1818,
      "хочет": 1819,
      "приме": 1820,
      "ган": 1821,
      "акти": 1822,
      "первый": 1823,
      "возра": 1824,
      "читал": 1825,
      "живут": 1826,
      "ДО": 1827,
      "Кто": 1828,
      "еб": 1829,
      "евро": 1830,
      "фы": 1831,
      "най": 1832,
      "деву": 1833,
      "дали": 1834,
      "вен": 1835,
      "выгля": 1836,
      "жал": 1837,
      "вной": 1838,
      "второй": 1839,
      "ждать": 1840,
      "одну": 1841,
      "ждение": 1842,
      "двига": 1843,
      "продук": 1844,
      "эффе": 1845,
      "аде": 1846,
      "ибо": 1847,
      "ото": 1848,
      "упа": 1849,
      "пози": 1850,
      "рию": 1851,
      "мог": 1852,
      "бывает": 1853,
      "дин": 1854,
      "станови": 1855,
      "мужи": 1856,
      "нули": 1857,
      "пасно": 1858,
      "000": 1859,
      "везде": 1860,
      "необходи": 1861,
      "22": 1862,
      "Ле": 1863,
      "жки": 1864,
      "кстати": 1865,
      "неде": 1866,
      "поз": 1867,
      "гом": 1868,
      "гор": 1869,
      "кино": 1870,
      "быстро": 1871,
      "стало": 1872,
      "стой": 1873,
      "причи": 1874,
      "сай": 1875,
      "безо": 1876,
      "баты": 1877,
      "подпи": 1878,
      "очере": 1879,
      "показыва": 1880,
      "полови": 1881,
      "довольно": 1882,
      "Очень": 1883,
      "пет": 1884,
      "пользу": 1885,
      "нил": 1886,
      "меди": 1887,
      "сок": 1888,
      "хоче": 1889,
      "оби": 1890,
      "разные": 1891,
      "гина": 1892,
      "слишком": 1893,
      "писать": 1894,
      "!!!!": 1895,
      "проблем": 1896,
      "компании": 1897,
      "видимо": 1898,
      "россий": 1899,
      "ВС": 1900,
      "гна": 1901,
      "спу": 1902,
      "указа": 1903,
      "торы": 1904,
      "попа": 1905,
      "появи": 1906,
      "ните": 1907,
      "собой": 1908,
      "виду": 1909,
      "сим": 1910,
      "призна": 1911,
      "обсу": 1912,
      "груз": 1913,
      "пиздец": 1914,
      "факт": 1915,
      "Ми": 1916,
      "вместо": 1917,
      "мл": 1918,
      "съ": 1919,
      "снима": 1920,
      "нар": 1921,
      "лета": 1922,
      "руб": 1923,
      "руют": 1924,
      "щение": 1925,
      "щие": 1926,
      "контро": 1927,
      "Вообще": 1928,
      "месяца": 1929,
      "минимум": 1930,
      "иногда": 1931,
      "адеква": 1932,
      "ОО": 1933,
      "дже": 1934,
      "попу": 1935,
      "ницы": 1936,
      "регу": 1937,
      "тика": 1938,
      "чать": 1939,
      "часа": 1940,
      "стоят": 1941,
      "сколь": 1942,
      "конкре": 1943,
      "езжа": 1944,
      "14": 1945,
      "ай": 1946,
      "вспо": 1947,
      "здо": 1948,
      "кс": 1949,
      "точки": 1950,
      "зая": 1951,
      "ческой": 1952,
      "прия": 1953,
      "менять": 1954,
      "работают": 1955,
      "особенно": 1956,
      "Кстати": 1957,
      "бю": 1958,
      "жды": 1959,
      "увели": 1960,
      "ям": 1961,
      "точ": 1962,
      "модера": 1963,
      "сотруд": 1964,
      "мыш": 1965,
      "пусть": 1966,
      "ступ": 1967,
      "технологи": 1968,
      "прям": 1969,
      "интернет": 1970,
      "аппара": 1971,
      "ано": 1972,
      "биз": 1973,
      "тр": 1974,
      "хер": 1975,
      "дети": 1976,
      "мед": 1977,
      "шем": 1978,
      "разве": 1979,
      "няя": 1980,
      "туры": 1981,
      "луй": 1982,
      "чной": 1983,
      "плане": 1984,
      "платно": 1985,
      "делает": 1986,
      "расска": 1987,
      "долбо": 1988,
      "ческие": 1989,
      "одном": 1990,
      "автома": 1991,
      "говорил": 1992,
      "легко": 1993,
      "вки": 1994,
      "тный": 1995,
      "хре": 1996,
      "чём": 1997,
      "рать": 1998,
      "ниже": 1999,
      "какое": 2000,
      "ребе": 2001,
      "зада": 2002,
      "сор": 2003,
      "вид": 2004,
      "отде": 2005,
      "хочу": 2006,
      "бера": 2007,
      "целом": 2008,
      "суд": 2009,
      "сур": 2010,
      "бить": 2011,
      "рядом": 2012,
      "правля": 2013,
      "строе": 2014,
      "предлага": 2015,
      "Зачем": 2016,
      "площа": 2017,
      "тяже": 2018,
      "Воз": 2019,
      "прямо": 2020,
      "ехать": 2021,
      "сюда": 2022,
      "комплек": 2023,
      "ЕС": 2024,
      "нке": 2025,
      "смер": 2026,
      "уг": 2027,
      "шту": 2028,
      "поро": 2029,
      "поме": 2030,
      "роз": 2031,
      "вании": 2032,
      "вень": 2033,
      "процен": 2034,
      "стары": 2035,
      "шен": 2036,
      "требо": 2037,
      "ходится": 2038,
      "играть": 2039,
      "относи": 2040,
      "клиен": 2041,
      "система": 2042,
      "бри": 2043,
      "твер": 2044,
      "реак": 2045,
      "такую": 2046,
      "тема": 2047,
      "сят": 2048,
      "мать": 2049,
      "сети": 2050,
      "музы": 2051,
      "нужны": 2052,
      "жили": 2053,
      "Поэтому": 2054,
      "жале": 2055,
      "ческих": 2056,
      "карти": 2057,
      "государство": 2058,
      "ВИ": 2059,
      "Се": 2060,
      "Ти": 2061,
      "ЯЯ": 2062,
      "лку": 2063,
      "счёт": 2064,
      "новый": 2065,
      "народ": 2066,
      "поез": 2067,
      "посмотреть": 2068,
      "вайте": 2069,
      "мел": 2070,
      "мое": 2071,
      "отсут": 2072,
      "буд": 2073,
      "жил": 2074,
      "знает": 2075,
      "свое": 2076,
      "самый": 2077,
      "ситуация": 2078,
      "обязательно": 2079,
      "наверное": 2080,
      "Зна": 2081,
      "СА": 2082,
      "вместе": 2083,
      "чё": 2084,
      "юту": 2085,
      "вак": 2086,
      "вол": 2087,
      "ческого": 2088,
      "тий": 2089,
      "тики": 2090,
      "ляет": 2091,
      "стали": 2092,
      "прият": 2093,
      "раздо": 2094,
      "гих": 2095,
      "коммента": 2096,
      "вном": 2097,
      "телефон": 2098,
      "креди": 2099,
      "метров": 2100,
      "сматри": 2101,
      "хотят": 2102,
      "пят": 2103,
      "ун": 2104,
      "никак": 2105,
      "рито": 2106,
      "лой": 2107,
      "вили": 2108,
      "рут": 2109,
      "хозя": 2110,
      "обре": 2111,
      "скор": 2112,
      "возвра": 2113,
      "работал": 2114,
      "возможность": 2115,
      "вший": 2116,
      "офици": 2117,
      "ЛЕ": 2118,
      "НЫ": 2119,
      "ПРО": 2120,
      "ад": 2121,
      "бре": 2122,
      "вь": 2123,
      "дёт": 2124,
      "убе": 2125,
      "нач": 2126,
      "национа": 2127,
      "речь": 2128,
      "готов": 2129,
      "тали": 2130,
      "руко": 2131,
      "дил": 2132,
      "стом": 2133,
      "цион": 2134,
      "жир": 2135,
      "спокой": 2136,
      "самого": 2137,
      "анти": 2138,
      "ровал": 2139,
      "глаза": 2140,
      "автомоби": 2141,
      "Хоро": 2142,
      "строить": 2143,
      "энерги": 2144,
      "Бу": 2145,
      "ПИ": 2146,
      "амери": 2147,
      "идет": 2148,
      "кет": 2149,
      "ями": 2150,
      "пости": 2151,
      "понрави": 2152,
      "ницу": 2153,
      "казыва": 2154,
      "гораздо": 2155,
      "ват": 2156,
      "дегенера": 2157,
      "ческая": 2158,
      "выда": 2159,
      "бума": 2160,
      "щих": 2161,
      "переда": 2162,
      "стран": 2163,
      "ктор": 2164,
      "ственный": 2165,
      "тельство": 2166,
      "пыт": 2167,
      "оборот": 2168,
      "2018": 2169,
      "зависи": 2170,
      "зависит": 2171,
      "смысл": 2172,
      "определе": 2173,
      "бки": 2174,
      "сне": 2175,
      "ссе": 2176,
      "чке": 2177,
      "помина": 2178,
      "каких": 2179,
      "режи": 2180,
      "лок": 2181,
      "серь": 2182,
      "вин": 2183,
      "видо": 2184,
      "мимо": 2185,
      "чаще": 2186,
      "сути": 2187,
      "которую": 2188,
      "своим": 2189,
      "фиг": 2190,
      "банк": 2191,
      "украин": 2192,
      "21": 2193,
      "es": 2194,
      "Пер": 2195,
      "ТИ": 2196,
      "ХО": 2197,
      "физи": 2198,
      "намного": 2199,
      "лит": 2200,
      "лицо": 2201,
      "вещи": 2202,
      "мире": 2203,
      "пишу": 2204,
      "щее": 2205,
      "всей": 2206,
      "подъ": 2207,
      "вного": 2208,
      "зии": 2209,
      "тельный": 2210,
      "тельства": 2211,
      "1000": 2212,
      "дям": 2213,
      "Ваши": 2214,
      "любом": 2215,
      "пользова": 2216,
      "количество": 2217,
      "иначе": 2218,
      "ac": 2219,
      "Евро": 2220,
      "ЛЯ": 2221,
      "Ру": 2222,
      "СО": 2223,
      "гри": 2224,
      "ожи": 2225,
      "охуе": 2226,
      "поса": 2227,
      "рах": 2228,
      "тесь": 2229,
      "выра": 2230,
      "чительно": 2231,
      "циф": 2232,
      "клад": 2233,
      "стоимость": 2234,
      "техни": 2235,
      "марке": 2236,
      "2019": 2237,
      "идёт": 2238,
      "жжжж": 2239,
      "кле": 2240,
      "оде": 2241,
      "см": 2242,
      "ресур": 2243,
      "вар": 2244,
      "ванием": 2245,
      "льным": 2246,
      "зара": 2247,
      "мол": 2248,
      "прости": 2249,
      "чается": 2250,
      "нность": 2251,
      "права": 2252,
      "верси": 2253,
      "своего": 2254,
      "времен": 2255,
      "должна": 2256,
      "ген": 2257,
      "круг": 2258,
      "хватает": 2259,
      "большинство": 2260,
      "похоже": 2261,
      "практически": 2262,
      "луйста": 2263,
      "al": 2264,
      "ВЕ": 2265,
      "МЕ": 2266,
      "ТУ": 2267,
      "описа": 2268,
      "пры": 2269,
      "настоя": 2270,
      "нечно": 2271,
      "роят": 2272,
      "ление": 2273,
      "пропа": 2274,
      "тите": 2275,
      "чает": 2276,
      "Под": 2277,
      "лых": 2278,
      "Надо": 2279,
      "общем": 2280,
      "снова": 2281,
      "дороже": 2282,
      "многие": 2283,
      "электри": 2284,
      "влия": 2285,
      "которого": 2286,
      "Интере": 2287,
      "ar": 2288,
      "БО": 2289,
      "ВЫ": 2290,
      "сфе": 2291,
      "некоторые": 2292,
      "четы": 2293,
      "чества": 2294,
      "прош": 2295,
      "обу": 2296,
      "щей": 2297,
      "прези": 2298,
      "био": 2299,
      "жало": 2300,
      "требу": 2301,
      "харак": 2302,
      "долла": 2303,
      "мнение": 2304,
      "террито": 2305,
      "никаких": 2306,
      "считать": 2307,
      "получить": 2308,
      "ехал": 2309,
      "покупать": 2310,
      "or": 2311,
      "ЖЕ": 2312,
      "Ла": 2313,
      "охра": 2314,
      "свер": 2315,
      "свет": 2316,
      "хз": 2317,
      "навли": 2318,
      "нит": 2319,
      "решение": 2320,
      "вались": 2321,
      "зация": 2322,
      "шенно": 2323,
      "рази": 2324,
      "работе": 2325,
      "говорят": 2326,
      "скри": 2327,
      "Тогда": 2328,
      "темпера": 2329,
      "серви": 2330,
      "полностью": 2331,
      "далеко": 2332,
      "противо": 2333,
      "огром": 2334,
      "неделю": 2335,
      "здоров": 2336,
      "16": 2337,
      "?\",": 2338,
      "Ге": 2339,
      "гей": 2340,
      "нку": 2341,
      "ваешь": 2342,
      "сегод": 2343,
      "тии": 2344,
      "вил": 2345,
      "руется": 2346,
      "чат": 2347,
      "измени": 2348,
      "цио": 2349,
      "дура": 2350,
      "буты": 2351,
      "след": 2352,
      "брал": 2353,
      "ебал": 2354,
      "машины": 2355,
      "связа": 2356,
      "которое": 2357,
      "сегодня": 2358,
      "17": 2359,
      "Еще": 2360,
      "дне": 2361,
      "зер": 2362,
      "иму": 2363,
      "сна": 2364,
      "сда": 2365,
      "среди": 2366,
      "яя": 2367,
      "напра": 2368,
      "рав": 2369,
      "рост": 2370,
      "прово": 2371,
      "провер": 2372,
      "бол": 2373,
      "сообще": 2374,
      "откуда": 2375,
      "хотел": 2376,
      "чивать": 2377,
      "разме": 2378,
      "щего": 2379,
      "бабу": 2380,
      "гами": 2381,
      "гаран": 2382,
      "жите": 2383,
      "нности": 2384,
      "подтвер": 2385,
      "фика": 2386,
      "тельности": 2387,
      "клады": 2388,
      "хуйню": 2389,
      "ключе": 2390,
      "свето": 2391,
      "системы": 2392,
      "ситуации": 2393,
      "Пере": 2394,
      "слыша": 2395,
      "пету": 2396,
      "американ": 2397,
      "23": 2398,
      "at": 2399,
      "Дума": 2400,
      "бка": 2401,
      "важно": 2402,
      "дея": 2403,
      "данные": 2404,
      "дили": 2405,
      "пикабу": 2406,
      "разо": 2407,
      "гает": 2408,
      "шить": 2409,
      "треть": 2410,
      "стер": 2411,
      "тельные": 2412,
      "правило": 2413,
      "обратно": 2414,
      "сторону": 2415,
      "факту": 2416,
      "знакомы": 2417,
      "Вашинг": 2418,
      "ДИ": 2419,
      "МА": 2420,
      "зон": 2421,
      "ощу": 2422,
      "тря": 2423,
      "цве": 2424,
      "чную": 2425,
      "щь": 2426,
      "наши": 2427,
      "лин": 2428,
      "льник": 2429,
      "тепло": 2430,
      "прошло": 2431,
      "сожале": 2432,
      "разных": 2433,
      "гать": 2434,
      "жив": 2435,
      "конте": 2436,
      "рование": 2437,
      "главное": 2438,
      "водить": 2439,
      "русских": 2440,
      "отношения": 2441,
      "вкус": 2442,
      "обеспе": 2443,
      "производства": 2444,
      "плюс": 2445,
      "населения": 2446,
      "35": 2447,
      "en": 2448,
      "Ло": 2449,
      "жный": 2450,
      "нти": 2451,
      "твой": 2452,
      "употре": 2453,
      "нется": 2454,
      "побе": 2455,
      "покуп": 2456,
      "какую": 2457,
      "моей": 2458,
      "честно": 2459,
      "тина": 2460,
      "соса": 2461,
      "кури": 2462,
      "писы": 2463,
      "цеп": 2464,
      "бит": 2465,
      "страи": 2466,
      "первых": 2467,
      "ходил": 2468,
      "сделал": 2469,
      "сделали": 2470,
      "статисти": 2471,
      "крити": 2472,
      "низм": 2473,
      "Теперь": 2474,
      "мужчи": 2475,
      "материа": 2476,
      "искать": 2477,
      "оружи": 2478,
      "вспом": 2479,
      "будто": 2480,
      "Ви": 2481,
      "Од": 2482,
      "ЧЕ": 2483,
      "вные": 2484,
      "сначала": 2485,
      "уго": 2486,
      "новые": 2487,
      "пове": 2488,
      "нин": 2489,
      "либера": 2490,
      "льную": 2491,
      "жей": 2492,
      "бора": 2493,
      "сона": 2494,
      "мии": 2495,
      "выход": 2496,
      "отме": 2497,
      "тупы": 2498,
      "пунк": 2499,
      "шую": 2500,
      "ключи": 2501,
      "жопу": 2502,
      "доволь": 2503,
      "Москве": 2504,
      "пожалуйста": 2505,
      "спраши": 2506,
      "экспер": 2507,
      "максима": 2508,
      "граждан": 2509,
      "происходит": 2510,
      "Вашингтон": 2511,
      ")\",": 2512,
      "жка": 2513,
      "зло": 2514,
      "недавно": 2515,
      "нихуя": 2516,
      "тать": 2517,
      "лая": 2518,
      "доказа": 2519,
      "куча": 2520,
      "стар": 2521,
      "паро": 2522,
      "пил": 2523,
      "инстру": 2524,
      "фици": 2525,
      "ктов": 2526,
      "Какие": 2527,
      "альные": 2528,
      "сравне": 2529,
      "каждо": 2530,
      "пидор": 2531,
      "истории": 2532,
      "цов": 2533,
      "написано": 2534,
      "качестве": 2535,
      "извест": 2536,
      "is": 2537,
      "гря": 2538,
      "дка": 2539,
      "жку": 2540,
      "фей": 2541,
      "ятся": 2542,
      "пов": 2543,
      "поле": 2544,
      "повто": 2545,
      "полез": 2546,
      "поводу": 2547,
      "нили": 2548,
      "кать": 2549,
      "демо": 2550,
      "деля": 2551,
      "таре": 2552,
      "зали": 2553,
      "профе": 2554,
      "бов": 2555,
      "бывают": 2556,
      "ходы": 2557,
      "чая": 2558,
      "чий": 2559,
      "муль": 2560,
      "приня": 2561,
      "Потом": 2562,
      "чного": 2563,
      "публи": 2564,
      "зов": 2565,
      "хар": 2566,
      "первые": 2567,
      "служ": 2568,
      "говоря": 2569,
      "иметь": 2570,
      "ебать": 2571,
      "понять": 2572,
      "бирать": 2573,
      "машину": 2574,
      "бесплатно": 2575,
      "солют": 2576,
      "становится": 2577,
      "млн": 2578,
      "популяр": 2579,
      "Возможно": 2580,
      "имуще": 2581,
      "сожалению": 2582,
      "БА": 2583,
      "ии": 2584,
      "эле": 2585,
      "ёшь": 2586,
      "неё": 2587,
      "горе": 2588,
      "метро": 2589,
      "дох": 2590,
      "чера": 2591,
      "прос": 2592,
      "бок": 2593,
      "отправи": 2594,
      "хоте": 2595,
      "чисто": 2596,
      "читы": 2597,
      "прило": 2598,
      "сама": 2599,
      "общи": 2600,
      "пин": 2601,
      "щения": 2602,
      "жит": 2603,
      "поддержи": 2604,
      "жает": 2605,
      "пуск": 2606,
      "плани": 2607,
      "слово": 2608,
      "представля": 2609,
      "ступле": 2610,
      "начал": 2611,
      "круп": 2612,
      "последние": 2613,
      "власти": 2614,
      "взять": 2615,
      "товар": 2616,
      "Меня": 2617,
      "уровень": 2618,
      "мышле": 2619,
      "13": 2620,
      "?!": 2621,
      "Кон": 2622,
      "Оста": 2623,
      "вный": 2624,
      "оскор": 2625,
      "срок": 2626,
      "поя": 2627,
      "никому": 2628,
      "тему": 2629,
      "заба": 2630,
      "сери": 2631,
      "выходит": 2632,
      "ходе": 2633,
      "людям": 2634,
      "верно": 2635,
      "конку": 2636,
      "говорю": 2637,
      "имеют": 2638,
      "класс": 2639,
      "ешься": 2640,
      "ствия": 2641,
      "исследо": 2642,
      "конец": 2643,
      "ставил": 2644,
      "сторон": 2645,
      "идти": 2646,
      "ремонт": 2647,
      "Интересно": 2648,
      "?,": 2649,
      "it": 2650,
      "Жи": 2651,
      "КУ": 2652,
      "Мар": 2653,
      "Ху": 2654,
      "ебу": 2655,
      "офор": 2656,
      "хле": 2657,
      "чным": 2658,
      "наблю": 2659,
      "нему": 2660,
      "кова": 2661,
      "реб": 2662,
      "зато": 2663,
      "лол": 2664,
      "лами": 2665,
      "моя": 2666,
      "кими": 2667,
      "секу": 2668,
      "тик": 2669,
      "мили": 2670,
      "микро": 2671,
      "шее": 2672,
      "причем": 2673,
      "сах": 2674,
      "тую": 2675,
      "туру": 2676,
      "чное": 2677,
      "персона": 2678,
      "ментов": 2679,
      "ссии": 2680,
      "Какой": 2681,
      "сравни": 2682,
      "Согла": 2683,
      "Россия": 2684,
      "существо": 2685,
      "решил": 2686,
      "образом": 2687,
      "безопасно": 2688,
      "медици": 2689,
      "Смо": 2690,
      "ХА": 2691,
      "игру": 2692,
      "чок": 2693,
      "номе": 2694,
      "номер": 2695,
      "ночь": 2696,
      "настолько": 2697,
      "наоборот": 2698,
      "похуй": 2699,
      "попада": 2700,
      "роде": 2701,
      "нику": 2702,
      "дает": 2703,
      "лер": 2704,
      "мето": 2705,
      "жена": 2706,
      "рудо": 2707,
      "отказа": 2708,
      "обви": 2709,
      "комна": 2710,
      "верь": 2711,
      "Например": 2712,
      "говор": 2713,
      "тельность": 2714,
      "тной": 2715,
      "брали": 2716,
      "видеть": 2717,
      "нюю": 2718,
      "марта": 2719,
      "купил": 2720,
      "вшие": 2721,
      "учиты": 2722,
      "компания": 2723,
      "специально": 2724,
      "уровня": 2725,
      "совершенно": 2726,
      "--": 2727,
      "ou": 2728,
      "Пы": 2729,
      "жные": 2730,
      "здра": 2731,
      "кно": 2732,
      "нда": 2733,
      "нга": 2734,
      "оо": 2735,
      "напря": 2736,
      "нена": 2737,
      "неплохо": 2738,
      "пон": 2739,
      "посте": 2740,
      "поряд": 2741,
      "роб": 2742,
      "лиш": 2743,
      "каком": 2744,
      "какого": 2745,
      "дения": 2746,
      "завод": 2747,
      "дове": 2748,
      "мас": 2749,
      "бога": 2750,
      "станет": 2751,
      "привы": 2752,
      "рых": 2753,
      "бур": 2754,
      "такси": 2755,
      "преду": 2756,
      "Пока": 2757,
      "треде": 2758,
      "большая": 2759,
      "стественно": 2760,
      "источ": 2761,
      "история": 2762,
      "отноше": 2763,
      "магазин": 2764,
      "фотографи": 2765,
      "говна": 2766,
      "ющего": 2767,
      "региона": 2768,
      "внимание": 2769,
      "спокойно": 2770,
      ".)": 2771,
      "150": 2772,
      "24": 2773,
      "Два": 2774,
      "Она": 2775,
      "Пиз": 2776,
      "Стра": 2777,
      "СТО": 2778,
      "Ту": 2779,
      "гно": 2780,
      "лке": 2781,
      "ого": 2782,
      "тку": 2783,
      "устрой": 2784,
      "некоторых": 2785,
      "раи": 2786,
      "коман": 2787,
      "ником": 2788,
      "качество": 2789,
      "рек": 2790,
      "реали": 2791,
      "таком": 2792,
      "леты": 2793,
      "мей": 2794,
      "метал": 2795,
      "мощ": 2796,
      "ческое": 2797,
      "сомне": 2798,
      "содержа": 2799,
      "отра": 2800,
      "чих": 2801,
      "разре": 2802,
      "ством": 2803,
      "скры": 2804,
      "никами": 2805,
      "никакого": 2806,
      "редко": 2807,
      "одинако": 2808,
      "полити": 2809,
      "основном": 2810,
      "ющей": 2811,
      "свинь": 2812,
      "щую": 2813,
      "лизм": 2814,
      "конкурен": 2815,
      "Луч": 2816,
      "Один": 2817,
      "Тем": 2818,
      "жных": 2819,
      "жнее": 2820,
      "нную": 2821,
      "сми": 2822,
      "тные": 2823,
      "экра": 2824,
      "юри": 2825,
      "нец": 2826,
      "поставить": 2827,
      "кал": 2828,
      "рели": 2829,
      "гос": 2830,
      "дется": 2831,
      "рил": 2832,
      "рисо": 2833,
      "моно": 2834,
      "могли": 2835,
      "дости": 2836,
      "жем": 2837,
      "сос": 2838,
      "дии": 2839,
      "отда": 2840,
      "бен": 2841,
      "пись": 2842,
      "супер": 2843,
      "фина": 2844,
      "друз": 2845,
      "щать": 2846,
      "предприя": 2847,
      "ровали": 2848,
      "Тоже": 2849,
      "ебану": 2850,
      "Рабо": 2851,
      "Вам": 2852,
      "вших": 2853,
      "смотрите": 2854,
      "объясни": 2855,
      "зрения": 2856,
      "серьез": 2857,
      "Ар": 2858,
      "Бля": 2859,
      "Без": 2860,
      "Име": 2861,
      "ОТ": 2862,
      "СТ": 2863,
      "Чу": 2864,
      "зп": 2865,
      "хрю": 2866,
      "шизо": 2867,
      "новле": 2868,
      "новых": 2869,
      "нести": 2870,
      "невозможно": 2871,
      "гомо": 2872,
      "валась": 2873,
      "дево": 2874,
      "зай": 2875,
      "лее": 2876,
      "кило": 2877,
      "вей": 2878,
      "вероят": 2879,
      "провод": 2880,
      "сохра": 2881,
      "миро": 2882,
      "придума": 2883,
      "тым": 2884,
      "тупой": 2885,
      "стить": 2886,
      "цей": 2887,
      "прекрас": 2888,
      "знают": 2889,
      "верну": 2890,
      "гую": 2891,
      "спосо": 2892,
      "странах": 2893,
      "расы": 2894,
      "возмо": 2895,
      "полни": 2896,
      "хороший": 2897,
      "автобу": 2898,
      "русский": 2899,
      "альный": 2900,
      "другое": 2901,
      "телям": 2902,
      "последний": 2903,
      "алкого": 2904,
      "нового": 2905,
      "благо": 2906,
      "специали": 2907,
      "области": 2908,
      "можешь": 2909,
      "будешь": 2910,
      "камеры": 2911,
      "абсолют": 2912,
      "Ещё": 2913,
      "Кры": 2914,
      "ПЕ": 2915,
      "арен": 2916,
      "агре": 2917,
      "гни": 2918,
      "еже": 2919,
      "участ": 2920,
      "чо": 2921,
      "неш": 2922,
      "коми": 2923,
      "вало": 2924,
      "тео": 2925,
      "рили": 2926,
      "соеди": 2927,
      "руки": 2928,
      "выро": 2929,
      "чай": 2930,
      "чивается": 2931,
      "сайте": 2932,
      "люб": 2933,
      "сков": 2934,
      "цену": 2935,
      "знать": 2936,
      "дного": 2937,
      "остальные": 2938,
      "никакой": 2939,
      "писал": 2940,
      "Конечно": 2941,
      "хорошие": 2942,
      "произо": 2943,
      "марш": 2944,
      "штраф": 2945,
      "хочется": 2946,
      "президе": 2947,
      "Дру": 2948,
      "НУ": 2949,
      "Плю": 2950,
      "Сто": 2951,
      "ХУ": 2952,
      "адре": 2953,
      "дю": 2954,
      "еби": 2955,
      "опа": 2956,
      "сче": 2957,
      "ядер": 2958,
      "недо": 2959,
      "повыше": 2960,
      "распо": 2961,
      "теря": 2962,
      "весе": 2963,
      "современ": 2964,
      "мин": 2965,
      "выбор": 2966,
      "хол": 2967,
      "шему": 2968,
      "обслужи": 2969,
      "тыс": 2970,
      "думы": 2971,
      "щем": 2972,
      "всему": 2973,
      "превра": 2974,
      "ходили": 2975,
      "возду": 2976,
      "карты": 2977,
      "Чтобы": 2978,
      "другом": 2979,
      "ответственно": 2980,
      "???": 2981,
      "установ": 2982,
      "рекламы": 2983,
      "использовать": 2984,
      "потеря": 2985,
      "дебил": 2986,
      "заказ": 2987,
      "внутри": 2988,
      "социали": 2989,
      "СИ": 2990,
      "джет": 2991,
      "кг": 2992,
      "окон": 2993,
      "снег": 2994,
      "тд": 2995,
      "уча": 2996,
      "цвет": 2997,
      "шё": 2998,
      "ющая": 2999,
      "кот": 3000,
      "копи": 3001,
      "лица": 3002,
      "ваши": 3003,
      "лем": 3004,
      "мора": 3005,
      "мама": 3006,
      "стаби": 3007,
      "бак": 3008,
      "акку": 3009,
      "шься": 3010,
      "пласти": 3011,
      "трен": 3012,
      "тное": 3013,
      "нормальный": 3014,
      "экспе": 3015,
      "голову": 3016,
      "делить": 3017,
      "2000": 3018,
      "взгля": 3019,
      "проверя": 3020,
      "смысла": 3021,
      "платят": 3022,
      "Кита": 3023,
      "времена": 3024,
      "скорость": 3025,
      "называется": 3026,
      "условия": 3027,
      "очередь": 3028,
      "подъез": 3029,
      "Лучше": 3030,
      "ic": 3031,
      "Ага": 3032,
      "БЫ": 3033,
      "Вла": 3034,
      "Осо": 3035,
      "ПА": 3036,
      "дё": 3037,
      "дные": 3038,
      "оце": 3039,
      "пля": 3040,
      "уны": 3041,
      "ужа": 3042,
      "чмо": 3043,
      "шет": 3044,
      "посе": 3045,
      "лими": 3046,
      "каса": 3047,
      "реа": 3048,
      "рейти": 3049,
      "ваний": 3050,
      "даль": 3051,
      "заго": 3052,
      "ладно": 3053,
      "моему": 3054,
      "боро": 3055,
      "вит": 3056,
      "руп": 3057,
      "сило": 3058,
      "нужна": 3059,
      "пиши": 3060,
      "котором": 3061,
      "конца": 3062,
      "распро": 3063,
      "первую": 3064,
      "ческим": 3065,
      "телем": 3066,
      "ебали": 3067,
      "ствуют": 3068,
      "сказали": 3069,
      "получил": 3070,
      "своими": 3071,
      "самых": 3072,
      "ющее": 3073,
      "курсе": 3074,
      "сосед": 3075,
      "улице": 3076,
      "семь": 3077,
      "интернете": 3078,
      "ed": 3079,
      "us": 3080,
      "Алек": 3081,
      "БИ": 3082,
      "Кро": 3083,
      "УК": 3084,
      "ау": 3085,
      "онов": 3086,
      "пки": 3087,
      "тю": 3088,
      "фф": 3089,
      "торов": 3090,
      "новой": 3091,
      "наш": 3092,
      "насколько": 3093,
      "нагруз": 3094,
      "потра": 3095,
      "лили": 3096,
      "кай": 3097,
      "рень": 3098,
      "зав": 3099,
      "лега": 3100,
      "метра": 3101,
      "мои": 3102,
      "моро": 3103,
      "моего": 3104,
      "вел": 3105,
      "май": 3106,
      "сообща": 3107,
      "мить": 3108,
      "выми": 3109,
      "еты": 3110,
      "ходов": 3111,
      "силь": 3112,
      "изнача": 3113,
      "льном": 3114,
      "инди": 3115,
      "гут": 3116,
      "шан": 3117,
      "контак": 3118,
      "рассматри": 3119,
      "зить": 3120,
      "ственных": 3121,
      "смог": 3122,
      "гер": 3123,
      "февра": 3124,
      "обосра": 3125,
      "менить": 3126,
      "банка": 3127,
      "получают": 3128,
      "твои": 3129,
      "Сам": 3130,
      "большин": 3131,
      "самые": 3132,
      "взро": 3133,
      "связи": 3134,
      "существует": 3135,
      "сумму": 3136,
      "Скорее": 3137,
      "гряз": 3138,
      "99": 3139,
      "il": 3140,
      "ЧТО": 3141,
      "Эти": 3142,
      "аа": 3143,
      "вная": 3144,
      "еду": 3145,
      "евре": 3146,
      "оте": 3147,
      "уз": 3148,
      "нашей": 3149,
      "посы": 3150,
      "поколе": 3151,
      "комен": 3152,
      "никого": 3153,
      "кате": 3154,
      "каты": 3155,
      "дем": 3156,
      "дами": 3157,
      "данном": 3158,
      "забыл": 3159,
      "лог": 3160,
      "доступ": 3161,
      "дополни": 3162,
      "массо": 3163,
      "рыно": 3164,
      "щик": 3165,
      "делали": 3166,
      "возь": 3167,
      "карто": 3168,
      "тяги": 3169,
      "Причем": 3170,
      "оборудо": 3171,
      "испол": 3172,
      "возможности": 3173,
      "хватит": 3174,
      "являются": 3175,
      "наличи": 3176,
      "многих": 3177,
      "един": 3178,
      "государства": 3179,
      "квартиру": 3180,
      "желание": 3181,
      "зарплаты": 3182,
      "крайне": 3183,
      "удобно": 3184,
      "максимум": 3185,
      "бизнес": 3186,
      "прошлом": 3187,
      "контент": 3188,
      "ro": 3189,
      "Авто": 3190,
      "НЯ": 3191,
      "Пре": 3192,
      "ЭТО": 3193,
      "джи": 3194,
      "жё": 3195,
      "зма": 3196,
      "кну": 3197,
      "рка": 3198,
      "схе": 3199,
      "тная": 3200,
      "ува": 3201,
      "угодно": 3202,
      "фан": 3203,
      "явно": 3204,
      "ясно": 3205,
      "нение": 3206,
      "кап": 3207,
      "каким": 3208,
      "годы": 3209,
      "дешь": 3210,
      "воде": 3211,
      "вокруг": 3212,
      "лого": 3213,
      "лете": 3214,
      "мешает": 3215,
      "моти": 3216,
      "дона": 3217,
      "доме": 3218,
      "чее": 3219,
      "чении": 3220,
      "ческую": 3221,
      "мах": 3222,
      "сеть": 3223,
      "соф": 3224,
      "кух": 3225,
      "лят": 3226,
      "стала": 3227,
      "прибы": 3228,
      "паль": 3229,
      "самая": 3230,
      "рынок": 3231,
      "гах": 3232,
      "цели": 3233,
      "цент": 3234,
      "бил": 3235,
      "кем": 3236,
      "фир": 3237,
      "золо": 3238,
      "тельная": 3239,
      "тельной": 3240,
      "бята": 3241,
      "остальное": 3242,
      "дерь": 3243,
      "жут": 3244,
      "дороги": 3245,
      "Ком": 3246,
      "ющим": 3247,
      "одним": 3248,
      "близ": 3249,
      "центра": 3250,
      "машина": 3251,
      "месяцев": 3252,
      "всяких": 3253,
      "утвер": 3254,
      "написал": 3255,
      "блоки": 3256,
      "штате": 3257,
      "реклама": 3258,
      "заниматься": 3259,
      "удиви": 3260,
      "печат": 3261,
      "информацию": 3262,
      "европей": 3263,
      "выглядит": 3264,
      "регуляр": 3265,
      "професси": 3266,
      "экспери": 3267,
      "45": 3268,
      "am": 3269,
      "Би": 3270,
      "Ди": 3271,
      "Еба": 3272,
      "Це": 3273,
      "ата": 3274,
      "бь": 3275,
      "гро": 3276,
      "здоро": 3277,
      "ктив": 3278,
      "мраз": 3279,
      "рки": 3280,
      "тни": 3281,
      "увидел": 3282,
      "чков": 3283,
      "що": 3284,
      "ясни": 3285,
      "порт": 3286,
      "посты": 3287,
      "раст": 3288,
      "копей": 3289,
      "ката": 3290,
      "кает": 3291,
      "рем": 3292,
      "ваш": 3293,
      "вами": 3294,
      "ваюсь": 3295,
      "летом": 3296,
      "мело": 3297,
      "жении": 3298,
      "мам": 3299,
      "бое": 3300,
      "быстре": 3301,
      "дите": 3302,
      "кука": 3303,
      "разница": 3304,
      "газ": 3305,
      "цель": 3306,
      "сука": 3307,
      "предо": 3308,
      "претен": 3309,
      "скими": 3310,
      "поддер": 3311,
      "жай": 3312,
      "план": 3313,
      "тельных": 3314,
      "самой": 3315,
      "телеви": 3316,
      "зывает": 3317,
      "одни": 3318,
      "однако": 3319,
      "пизда": 3320,
      "ставили": 3321,
      "форму": 3322,
      "игро": 3323,
      "школе": 3324,
      "Боль": 3325,
      "благода": 3326,
      "опреде": 3327,
      "пустить": 3328,
      "магазине": 3329,
      "можете": 3330,
      "узнать": 3331,
      "оригина": 3332,
      "активно": 3333,
      "ютубе": 3334,
      "Плюс": 3335,
      "he": 3336,
      "oo": 3337,
      "ГИ": 3338,
      "Гла": 3339,
      "Му": 3340,
      "Сер": 3341,
      "аж": 3342,
      "жная": 3343,
      "зм": 3344,
      "нными": 3345,
      "умер": 3346,
      "удоволь": 3347,
      "назна": 3348,
      "несе": 3349,
      "космо": 3350,
      "водо": 3351,
      "законо": 3352,
      "меха": 3353,
      "дора": 3354,
      "вере": 3355,
      "вело": 3356,
      "мат": 3357,
      "сообщи": 3358,
      "дио": 3359,
      "чал": 3360,
      "стара": 3361,
      "чил": 3362,
      "чики": 3363,
      "привле": 3364,
      "оба": 3365,
      "разли": 3366,
      "скому": 3367,
      "мые": 3368,
      "подроб": 3369,
      "трех": 3370,
      "контра": 3371,
      "страна": 3372,
      "первой": 3373,
      "которым": 3374,
      "геро": 3375,
      "скла": 3376,
      "Зато": 3377,
      "начале": 3378,
      "картин": 3379,
      "русня": 3380,
      "русские": 3381,
      "действия": 3382,
      "держать": 3383,
      "компью": 3384,
      "смотря": 3385,
      "коммуни": 3386,
      "уровне": 3387,
      "исключительно": 3388,
      "ограниче": 3389,
      "услуги": 3390,
      "конкретно": 3391,
      "процентов": 3392,
      "финан": 3393,
      "el": 3394,
      "БЕ": 3395,
      "Гу": 3396,
      "ДС": 3397,
      "МС": 3398,
      "Обы": 3399,
      "РЫ": 3400,
      "Уже": 3401,
      "дку": 3402,
      "идут": 3403,
      "мле": 3404,
      "упра": 3405,
      "хло": 3406,
      "щин": 3407,
      "налоги": 3408,
      "нету": 3409,
      "посмотрел": 3410,
      "лик": 3411,
      "кад": 3412,
      "рекомен": 3413,
      "дев": 3414,
      "дав": 3415,
      "давай": 3416,
      "лежа": 3417,
      "тило": 3418,
      "бовать": 3419,
      "отдель": 3420,
      "чиков": 3421,
      "стол": 3422,
      "бай": 3423,
      "бал": 3424,
      "гам": 3425,
      "гар": 3426,
      "гара": 3427,
      "гаре": 3428,
      "ститу": 3429,
      "жиль": 3430,
      "шим": 3431,
      "цене": 3432,
      "мысли": 3433,
      "инже": 3434,
      "знал": 3435,
      "шают": 3436,
      "лым": 3437,
      "хать": 3438,
      "ственные": 3439,
      "начали": 3440,
      "правила": 3441,
      "водитель": 3442,
      "альных": 3443,
      "получать": 3444,
      "машин": 3445,
      "объек": 3446,
      "минус": 3447,
      "учиться": 3448,
      "свино": 3449,
      "снять": 3450,
      "Израи": 3451,
      "смотрю": 3452,
      "районе": 3453,
      "зарплата": 3454,
      "внутрен": 3455,
      "АААА": 3456,
      "уверен": 3457,
      "аналоги": 3458,
      "Сколько": 3459,
      "половину": 3460,
      "бюджет": 3461,
      "пишут": 3462,
      "ожида": 3463,
      "!)": 3464,
      "400": 3465,
      "600": 3466,
      "et": 3467,
      "Же": 3468,
      "Им": 3469,
      "МУ": 3470,
      "аэ": 3471,
      "авари": 3472,
      "впечат": 3473,
      "дных": 3474,
      "клу": 3475,
      "оцен": 3476,
      "фот": 3477,
      "чкой": 3478,
      "товари": 3479,
      "ному": 3480,
      "носит": 3481,
      "поп": 3482,
      "пово": 3483,
      "повы": 3484,
      "лил": 3485,
      "горит": 3486,
      "теку": 3487,
      "дат": 3488,
      "зап": 3489,
      "мета": 3490,
      "мого": 3491,
      "прое": 3492,
      "руса": 3493,
      "минима": 3494,
      "выгод": 3495,
      "кукол": 3496,
      "син": 3497,
      "измене": 3498,
      "рый": 3499,
      "бую": 3500,
      "батаре": 3501,
      "гал": 3502,
      "нью": 3503,
      "суть": 3504,
      "подру": 3505,
      "пута": 3506,
      "пуще": 3507,
      "трам": 3508,
      "тельное": 3509,
      "терро": 3510,
      "ступе": 3511,
      "ездить": 3512,
      "рования": 3513,
      "видели": 3514,
      "фаши": 3515,
      "альная": 3516,
      "полиции": 3517,
      "получится": 3518,
      "всякие": 3519,
      "внеш": 3520,
      "школь": 3521,
      "большие": 3522,
      "министра": 3523,
      "решили": 3524,
      "производство": 3525,
      "транспор": 3526,
      "пользоваться": 3527,
      "смарт": 3528,
      "емый": 3529,
      "животных": 3530,
      "другая": 3531,
      "документы": 3532,
      "примеру": 3533,
      "ВСЕ": 3534,
      "нарко": 3535,
      "энергии": 3536,
      "зарабаты": 3537,
      "Думаю": 3538,
      "катего": 3539,
      "Вер": 3540,
      "Пред": 3541,
      "ЦИ": 3542,
      "ани": 3543,
      "включа": 3544,
      "йся": 3545,
      "окру": 3546,
      "опыт": 3547,
      "тного": 3548,
      "ясь": 3549,
      "ёз": 3550,
      "тое": 3551,
      "нешь": 3552,
      "рого": 3553,
      "лина": 3554,
      "каби": 3555,
      "тащи": 3556,
      "данных": 3557,
      "нынеш": 3558,
      "дож": 3559,
      "дохода": 3560,
      "типо": 3561,
      "выпол": 3562,
      "откро": 3563,
      "сидеть": 3564,
      "сигна": 3565,
      "сигаре": 3566,
      "памя": 3567,
      "изви": 3568,
      "рынка": 3569,
      "пише": 3570,
      "дую": 3571,
      "бук": 3572,
      "бам": 3573,
      "суде": 3574,
      "били": 3575,
      "поднима": 3576,
      "жают": 3577,
      "инф": 3578,
      "делал": 3579,
      "страш": 3580,
      "первого": 3581,
      "полгода": 3582,
      "бление": 3583,
      "Этот": 3584,
      "останови": 3585,
      "Коро": 3586,
      "стоимости": 3587,
      "ебало": 3588,
      "аргу": 3589,
      "другим": 3590,
      "2017": 3591,
      "ктивно": 3592,
      "Хох": 3593,
      "умень": 3594,
      "собаки": 3595,
      "налог": 3596,
      "крайней": 3597,
      "народа": 3598,
      "проект": 3599,
      "хочешь": 3600,
      "ребенка": 3601,
      "безопасности": 3602,
      "религи": 3603,
      "Китае": 3604,
      "Влади": 3605,
      "быстрее": 3606,
      "Га": 3607,
      "Их": 3608,
      "ПУ": 3609,
      "Прави": 3610,
      "ас": 3611,
      "анали": 3612,
      "бря": 3613,
      "вшего": 3614,
      "естественно": 3615,
      "жь": 3616,
      "ипоте": 3617,
      "нём": 3618,
      "ох": 3619,
      "устрои": 3620,
      "нации": 3621,
      "поменя": 3622,
      "поверх": 3623,
      "раб": 3624,
      "кола": 3625,
      "кося": 3626,
      "ребята": 3627,
      "дека": 3628,
      "декс": 3629,
      "вов": 3630,
      "теме": 3631,
      "рина": 3632,
      "рите": 3633,
      "меры": 3634,
      "мосфе": 3635,
      "жешь": 3636,
      "промышле": 3637,
      "составля": 3638,
      "виа": 3639,
      "хожу": 3640,
      "силы": 3641,
      "мут": 3642,
      "мусор": 3643,
      "приобре": 3644,
      "пакет": 3645,
      "обез": 3646,
      "рынке": 3647,
      "бель": 3648,
      "пит": 3649,
      "пило": 3650,
      "скажите": 3651,
      "треда": 3652,
      "вернуть": 3653,
      "детстве": 3654,
      "фона": 3655,
      "зова": 3656,
      "страну": 3657,
      "ровки": 3658,
      "случи": 3659,
      "слушать": 3660,
      "мерз": 3661,
      "тельным": 3662,
      "такими": 3663,
      "щает": 3664,
      "влять": 3665,
      "шок": 3666,
      "хие": 3667,
      "интересу": 3668,
      "считаю": 3669,
      "понимаешь": 3670,
      "объе": 3671,
      "игр": 3672,
      "Никто": 3673,
      "владель": 3674,
      "процесс": 3675,
      "бесплат": 3676,
      "родители": 3677,
      "весьма": 3678,
      "капитали": 3679,
      "результат": 3680,
      "Люди": 3681,
      "Украине": 3682,
      "направле": 3683,
      "пиндо": 3684,
      "изначально": 3685,
      "Его": 3686,
      "Пет": 3687,
      "СТА": 3688,
      "Фи": 3689,
      "нтов": 3690,
      "оли": 3691,
      "чками": 3692,
      "шлось": 3693,
      "шники": 3694,
      "ёб": 3695,
      "недели": 3696,
      "полага": 3697,
      "рое": 3698,
      "кость": 3699,
      "нике": 3700,
      "лицен": 3701,
      "рецеп": 3702,
      "гон": 3703,
      "говари": 3704,
      "лон": 3705,
      "лока": 3706,
      "модель": 3707,
      "домо": 3708,
      "профи": 3709,
      "просты": 3710,
      "маня": 3711,
      "тим": 3712,
      "хом": 3713,
      "силу": 3714,
      "причина": 3715,
      "беспо": 3716,
      "бая": 3717,
      "нько": 3718,
      "суда": 3719,
      "мый": 3720,
      "вторых": 3721,
      "щается": 3722,
      "цам": 3723,
      "стую": 3724,
      "никам": 3725,
      "жур": 3726,
      "Каза": 3727,
      "Какая": 3728,
      "хуйня": 3729,
      "оборо": 3730,
      "йтесь": 3731,
      "Раньше": 3732,
      "получает": 3733,
      "среднем": 3734,
      "отношение": 3735,
      "замеча": 3736,
      "Гово": 3737,
      "обеща": 3738,
      "квартиры": 3739,
      "транспорт": 3740,
      "развития": 3741,
      "двери": 3742,
      "позволяет": 3743,
      "уничто": 3744,
      "дерев": 3745,
      "организации": 3746,
      "психи": 3747,
      "отсутствие": 3748,
      "зависимости": 3749,
      "пропаган": 3750,
      "слышал": 3751,
      "тупые": 3752,
      "Особенно": 3753,
      "мразь": 3754,
      "32": 3755,
      "if": 3756,
      "ru": 3757,
      "Бан": 3758,
      "ОБ": 3759,
      "Ой": 3760,
      "Опять": 3761,
      "Прав": 3762,
      "Чи": 3763,
      "Чем": 3764,
      "вдруг": 3765,
      "дный": 3766,
      "дётся": 3767,
      "мной": 3768,
      "ой": 3769,
      "тода": 3770,
      "новое": 3771,
      "нашел": 3772,
      "поги": 3773,
      "почита": 3774,
      "ровно": 3775,
      "лировать": 3776,
      "карма": 3777,
      "восто": 3778,
      "волю": 3779,
      "дай": 3780,
      "забо": 3781,
      "забы": 3782,
      "лева": 3783,
      "меша": 3784,
      "момента": 3785,
      "века": 3786,
      "ведли": 3787,
      "прока": 3788,
      "маль": 3789,
      "середи": 3790,
      "оты": 3791,
      "хов": 3792,
      "сидят": 3793,
      "чика": 3794,
      "чивает": 3795,
      "приви": 3796,
      "пать": 3797,
      "паде": 3798,
      "изм": 3799,
      "пили": 3800,
      "пида": 3801,
      "разъ": 3802,
      "разобра": 3803,
      "гугли": 3804,
      "степе": 3805,
      "зом": 3806,
      "зимой": 3807,
      "ствовать": 3808,
      "тради": 3809,
      "слуша": 3810,
      "работаю": 3811,
      "самому": 3812,
      "войны": 3813,
      "класси": 3814,
      "Пробле": 3815,
      "началь": 3816,
      "архи": 3817,
      "блин": 3818,
      "четвер": 3819,
      "продают": 3820,
      "форми": 3821,
      "ехали": 3822,
      "движения": 3823,
      "низма": 3824,
      "пытался": 3825,
      "домаш": 3826,
      "новости": 3827,
      "проверить": 3828,
      "взял": 3829,
      "название": 3830,
      "падает": 3831,
      "атмосфе": 3832,
      "лайн": 3833,
      "скольку": 3834,
      "руковод": 3835,
      "четыре": 3836,
      "Именно": 3837,
      "Алекса": 3838,
      "БУ": 3839,
      "Вто": 3840,
      "Види": 3841,
      "ГА": 3842,
      "ЛЮ": 3843,
      "Лу": 3844,
      "Ска": 3845,
      "ТРЕ": 3846,
      "ШЕ": 3847,
      "Ша": 3848,
      "ауди": 3849,
      "гры": 3850,
      "ил": 3851,
      "сбор": 3852,
      "тных": 3853,
      "утра": 3854,
      "фри": 3855,
      "яр": 3856,
      "ноу": 3857,
      "наи": 3858,
      "поря": 3859,
      "подума": 3860,
      "рал": 3861,
      "кори": 3862,
      "гоня": 3863,
      "гости": 3864,
      "ваем": 3865,
      "дета": 3866,
      "затра": 3867,
      "заболе": 3868,
      "жений": 3869,
      "вес": 3870,
      "проез": 3871,
      "прочее": 3872,
      "совреме": 3873,
      "кус": 3874,
      "ляции": 3875,
      "приходи": 3876,
      "придется": 3877,
      "пая": 3878,
      "обнару": 3879,
      "беру": 3880,
      "разы": 3881,
      "разработ": 3882,
      "шит": 3883,
      "судь": 3884,
      "судя": 3885,
      "плате": 3886,
      "фоне": 3887,
      "рассу": 3888,
      "слов": 3889,
      "полтора": 3890,
      "тельного": 3891,
      "мяг": 3892,
      "терпе": 3893,
      "никах": 3894,
      "писали": 3895,
      "фаль": 3896,
      "Вопрос": 3897,
      "считают": 3898,
      "другого": 3899,
      "средства": 3900,
      "вопросы": 3901,
      "играл": 3902,
      "школы": 3903,
      "КАК": 3904,
      "помощ": 3905,
      "метр": 3906,
      "квартире": 3907,
      "подарок": 3908,
      "пускать": 3909,
      "функ": 3910,
      "далее": 3911,
      "телефона": 3912,
      "винова": 3913,
      "женщины": 3914,
      "девушка": 3915,
      "упаков": 3916,
      "мужик": 3917,
      "сайт": 3918,
      "смерти": 3919,
      "штука": 3920,
      "Значит": 3921,
      "деятельности": 3922,
      "Однако": 3923,
      "монополи": 3924,
      "агресси": 3925,
      "реаги": 3926,
      "прибыль": 3927,
      "террори": 3928,
      "Ал": 3929,
      "ЖИ": 3930,
      "Пря": 3931,
      "СЯ": 3932,
      "Сначала": 3933,
      "Ха": 3934,
      "ази": 3935,
      "гр": 3936,
      "ебы": 3937,
      "зь": 3938,
      "оказыва": 3939,
      "уво": 3940,
      "фре": 3941,
      "топ": 3942,
      "нос": 3943,
      "несу": 3944,
      "поне": 3945,
      "повез": 3946,
      "пошли": 3947,
      "расти": 3948,
      "кофе": 3949,
      "горя": 3950,
      "дак": 3951,
      "заяви": 3952,
      "рица": 3953,
      "модели": 3954,
      "тировать": 3955,
      "соц": 3956,
      "дия": 3957,
      "мия": 3958,
      "пеше": 3959,
      "хой": 3960,
      "чаются": 3961,
      "чили": 3962,
      "чинов": 3963,
      "тыми": 3964,
      "пик": 3965,
      "разбира": 3966,
      "любы": 3967,
      "жила": 3968,
      "Полу": 3969,
      "знаком": 3970,
      "фига": 3971,
      "шается": 3972,
      "грамо": 3973,
      "зирова": 3974,
      "другую": 3975,
      "Ново": 3976,
      "сной": 3977,
      "строили": 3978,
      "представи": 3979,
      "болез": 3980,
      "ствии": 3981,
      "вятся": 3982,
      "водит": 3983,
      "твоей": 3984,
      "смеш": 3985,
      "малолет": 3986,
      "отлично": 3987,
      "ситуацию": 3988,
      "ТЕР": 3989,
      "взяли": 3990,
      "Китай": 3991,
      "стях": 3992,
      "воспита": 3993,
      "смотрит": 3994,
      "тариан": 3995,
      "согласен": 3996,
      "менедже": 3997,
      "качества": 3998,
      "убий": 3999,
      "начинает": 4000,
      "книги": 4001,
      "будем": 4002,
      "известно": 4003,
      "период": 4004,
      "продукты": 4005,
      "спут": 4006,
      "требования": 4007,
      "официально": 4008,
      "Хорошо": 4009,
      "понравилось": 4010,
      "долларов": 4011,
      "сверху": 4012,
      "ребё": 4013,
      "прекрасно": 4014,
      "Кроме": 4015,
      "копейки": 4016,
      "Правда": 4017,
      "27": 4018,
      "do": 4019,
      "ion": 4020,
      "le": 4021,
      "ri": 4022,
      "БЛЯ": 4023,
      "ИП": 4024,
      "СУ": 4025,
      "ЧИ": 4026,
      "ера": 4027,
      "едет": 4028,
      "жную": 4029,
      "кса": 4030,
      "рр": 4031,
      "сму": 4032,
      "ублю": 4033,
      "чко": 4034,
      "член": 4035,
      "шкой": 4036,
      "ыы": 4037,
      "эмо": 4038,
      "новую": 4039,
      "наше": 4040,
      "наци": 4041,
      "неф": 4042,
      "поля": 4043,
      "покры": 4044,
      "постав": 4045,
      "лице": 4046,
      "годи": 4047,
      "делы": 4048,
      "давать": 4049,
      "лое": 4050,
      "лекар": 4051,
      "домой": 4052,
      "жест": 4053,
      "кин": 4054,
      "киды": 4055,
      "вещь": 4056,
      "прогре": 4057,
      "тила": 4058,
      "тится": 4059,
      "собы": 4060,
      "совок": 4061,
      "руках": 4062,
      "выжи": 4063,
      "отды": 4064,
      "стами": 4065,
      "приходит": 4066,
      "пан": 4067,
      "пах": 4068,
      "пасса": 4069,
      "баб": 4070,
      "гают": 4071,
      "суль": 4072,
      "знаешь": 4073,
      "работода": 4074,
      "своё": 4075,
      "фов": 4076,
      "лыми": 4077,
      "хай": 4078,
      "странно": 4079,
      "первое": 4080,
      "чую": 4081,
      "щас": 4082,
      "осталось": 4083,
      "студен": 4084,
      "женщин": 4085,
      "дорогу": 4086,
      "ствием": 4087,
      "Рос": 4088,
      "ственного": 4089,
      "торго": 4090,
      "ближай": 4091,
      "дваче": 4092,
      "пления": 4093,
      "фильмы": 4094,
      "средств": 4095,
      "получилось": 4096,
      "етесь": 4097,
      "параш": 4098,
      "истори": 4099,
      "смешно": 4100,
      "помощи": 4101,
      "радио": 4102,
      "канал": 4103,
      "статье": 4104,
      "подобное": 4105,
      "условиях": 4106,
      "местах": 4107,
      "состоянии": 4108,
      "результате": 4109,
      "жалко": 4110,
      "обсужда": 4111,
      "отдельно": 4112,
      "приятно": 4113,
      "жжжжжжжж": 4114,
      "характер": 4115,
      "каждого": 4116,
      "весело": 4117,
      "оконча": 4118,
      "кукаре": 4119,
      "))": 4120,
      "28": 4121,
      "37": 4122,
      "ch": 4123,
      "ra": 4124,
      "re": 4125,
      "st": 4126,
      "Ан": 4127,
      "Вроде": 4128,
      "Зем": 4129,
      "ЛЫ": 4130,
      "ОП": 4131,
      "ПРИ": 4132,
      "ака": 4133,
      "вряд": 4134,
      "ввиду": 4135,
      "ент": 4136,
      "ологи": 4137,
      "пти": 4138,
      "плу": 4139,
      "пья": 4140,
      "сва": 4141,
      "тят": 4142,
      "япон": 4143,
      "ёбы": 4144,
      "нака": 4145,
      "начи": 4146,
      "неры": 4147,
      "неправильно": 4148,
      "поведе": 4149,
      "кобы": 4150,
      "косми": 4151,
      "голове": 4152,
      "воспо": 4153,
      "льги": 4154,
      "даст": 4155,
      "заве": 4156,
      "запла": 4157,
      "заказа": 4158,
      "зацию": 4159,
      "лежит": 4160,
      "мец": 4161,
      "жены": 4162,
      "серии": 4163,
      "титься": 4164,
      "сон": 4165,
      "сою": 4166,
      "собра": 4167,
      "рук": 4168,
      "ходу": 4169,
      "хотите": 4170,
      "чим": 4171,
      "приезжа": 4172,
      "приходится": 4173,
      "пас": 4174,
      "рыв": 4175,
      "бесе": 4176,
      "цивили": 4177,
      "пиво": 4178,
      "разд": 4179,
      "няет": 4180,
      "всеми": 4181,
      "буква": 4182,
      "цем": 4183,
      "преды": 4184,
      "прекра": 4185,
      "подряд": 4186,
      "знаете": 4187,
      "дное": 4188,
      "конструк": 4189,
      "ктора": 4190,
      "емся": 4191,
      "Нужно": 4192,
      "чувак": 4193,
      "Моло": 4194,
      "однозна": 4195,
      "карта": 4196,
      "карту": 4197,
      "хорошая": 4198,
      "вяза": 4199,
      "фай": 4200,
      "говорится": 4201,
      "нормальные": 4202,
      "трудо": 4203,
      "обычный": 4204,
      "пяти": 4205,
      "машине": 4206,
      "Ничего": 4207,
      "идеи": 4208,
      "идея": 4209,
      "Ведь": 4210,
      "отличается": 4211,
      "регистра": 4212,
      "запреще": 4213,
      "тариф": 4214,
      "подобные": 4215,
      "образование": 4216,
      "соседей": 4217,
      "язык": 4218,
      "закончи": 4219,
      "состояние": 4220,
      "увере": 4221,
      "чувству": 4222,
      "возраст": 4223,
      "гнать": 4224,
      "рассказыва": 4225,
      "старые": 4226,
      "относительно": 4227,
      "эксперти": 4228,
      "учитывая": 4229,
      "ненави": 4230,
      "абсолютно": 4231,
      "обезья": 4232,
      "800": 4233,
      "ЕТ": 4234,
      "Ок": 4235,
      "ТП": 4236,
      "вклю": 4237,
      "гром": 4238,
      "исти": 4239,
      "остро": 4240,
      "одоб": 4241,
      "рд": 4242,
      "рк": 4243,
      "сре": 4244,
      "тк": 4245,
      "устраи": 4246,
      "хей": 4247,
      "хрен": 4248,
      "шизи": 4249,
      "топо": 4250,
      "носи": 4251,
      "наме": 4252,
      "нашли": 4253,
      "находится": 4254,
      "небольшой": 4255,
      "поль": 4256,
      "попы": 4257,
      "помой": 4258,
      "подумал": 4259,
      "построить": 4260,
      "коль": 4261,
      "решения": 4262,
      "вае": 4263,
      "вато": 4264,
      "ватель": 4265,
      "валось": 4266,
      "воло": 4267,
      "льными": 4268,
      "данный": 4269,
      "зам": 4270,
      "рису": 4271,
      "мень": 4272,
      "лад": 4273,
      "моде": 4274,
      "доход": 4275,
      "кир": 4276,
      "веду": 4277,
      "секре": 4278,
      "сезон": 4279,
      "тип": 4280,
      "тию": 4281,
      "боя": 4282,
      "сокра": 4283,
      "вина": 4284,
      "руками": 4285,
      "выз": 4286,
      "выбо": 4287,
      "выбира": 4288,
      "выгодно": 4289,
      "кучу": 4290,
      "хотели": 4291,
      "ляют": 4292,
      "стая": 4293,
      "мую": 4294,
      "примене": 4295,
      "паспорт": 4296,
      "беско": 4297,
      "берут": 4298,
      "разру": 4299,
      "нят": 4300,
      "нька": 4301,
      "живе": 4302,
      "преступле": 4303,
      "мыс": 4304,
      "Пом": 4305,
      "жан": 4306,
      "зная": 4307,
      "тредов": 4308,
      "гуг": 4309,
      "конф": 4310,
      "зия": 4311,
      "терпи": 4312,
      "остальных": 4313,
      "глав": 4314,
      "спек": 4315,
      "стоить": 4316,
      "автор": 4317,
      "фамили": 4318,
      "пизде": 4319,
      "сказала": 4320,
      "разуме": 4321,
      "интересо": 4322,
      "правды": 4323,
      "банков": 4324,
      "продав": 4325,
      "продать": 4326,
      "другому": 4327,
      "средне": 4328,
      "жопы": 4329,
      "случаев": 4330,
      "последнее": 4331,
      "историю": 4332,
      "коллек": 4333,
      "смысле": 4334,
      "процент": 4335,
      "большое": 4336,
      "согласно": 4337,
      "Пусть": 4338,
      "Путин": 4339,
      "Путина": 4340,
      "любит": 4341,
      "Был": 4342,
      "добавить": 4343,
      "виноват": 4344,
      "женщина": 4345,
      "херня": 4346,
      "хозяй": 4347,
      "Герма": 4348,
      "хотелось": 4349,
      "ночью": 4350,
      "Пиздец": 4351,
      "любят": 4352,
      "ебись": 4353,
      "завтра": 4354,
      "взрослы": 4355,
      "Проблема": 4356,
      "Видимо": 4357,
      "помощью": 4358,
      "предыду": 4359,
      "РЯ": 4360,
      "ТЫ": 4361,
      "вза": 4362,
      "вчера": 4363,
      "дца": 4364,
      "ит": 4365,
      "мб": 4366,
      "нца": 4367,
      "озву": 4368,
      "опасно": 4369,
      "рта": 4370,
      "утро": 4371,
      "хро": 4372,
      "чными": 4373,
      "эко": 4374,
      "топли": 4375,
      "ноль": 4376,
      "новая": 4377,
      "нечего": 4378,
      "посту": 4379,
      "постов": 4380,
      "дешё": 4381,
      "лопа": 4382,
      "мост": 4383,
      "могла": 4384,
      "монта": 4385,
      "дон": 4386,
      "чением": 4387,
      "прочие": 4388,
      "тирова": 4389,
      "дис": 4390,
      "дина": 4391,
      "вывод": 4392,
      "отста": 4393,
      "отправля": 4394,
      "отрица": 4395,
      "пали": 4396,
      "разгово": 4397,
      "любую": 4398,
      "жим": 4399,
      "гим": 4400,
      "гига": 4401,
      "шил": 4402,
      "жного": 4403,
      "сутки": 4404,
      "Поня": 4405,
      "жаль": 4406,
      "щим": 4407,
      "путе": 4408,
      "своём": 4409,
      "меняет": 4410,
      "зона": 4411,
      "страшно": 4412,
      "сможет": 4413,
      "слома": 4414,
      "полный": 4415,
      "имею": 4416,
      "одному": 4417,
      "начать": 4418,
      "правил": 4419,
      "выйти": 4420,
      "случаях": 4421,
      "понятия": 4422,
      "ственное": 4423,
      "центре": 4424,
      "труда": 4425,
      "почте": 4426,
      "хохло": 4427,
      "твоя": 4428,
      "получили": 4429,
      "жом": 4430,
      "Вас": 4431,
      "корпора": 4432,
      "школу": 4433,
      "движение": 4434,
      "Хоть": 4435,
      "заметно": 4436,
      "частли": 4437,
      "новость": 4438,
      "Дело": 4439,
      "существу": 4440,
      "молоды": 4441,
      "вариантов": 4442,
      "которому": 4443,
      "устанавли": 4444,
      "законы": 4445,
      "закону": 4446,
      "операции": 4447,
      "курс": 4448,
      "защиты": 4449,
      "используется": 4450,
      "холоди": 4451,
      "текст": 4452,
      "мозга": 4453,
      "принимать": 4454,
      "ошиба": 4455,
      "услуг": 4456,
      "показывают": 4457,
      "автоматически": 4458,
      "ЯЯЯЯ": 4459,
      "администра": 4460,
      "противоре": 4461,
      "мужчины": 4462,
      "имущества": 4463,
      "друзья": 4464,
      "маршру": 4465,
      "оцени": 4466,
      "дальней": 4467,
      "индивиду": 4468,
      "профессиона": 4469,
      "аэро": 4470,
      "26": 4471,
      "of": 4472,
      "СЕ": 4473,
      "СП": 4474,
      "ЧА": 4475,
      "Ча": 4476,
      "Чер": 4477,
      "ава": 4478,
      "дко": 4479,
      "жным": 4480,
      "зри": 4481,
      "исте": 4482,
      "кля": 4483,
      "кров": 4484,
      "яй": 4485,
      "ёба": 4486,
      "толе": 4487,
      "нож": 4488,
      "натура": 4489,
      "наших": 4490,
      "напомина": 4491,
      "непонятно": 4492,
      "несколь": 4493,
      "пото": 4494,
      "ковых": 4495,
      "нина": 4496,
      "гой": 4497,
      "ванию": 4498,
      "вовсе": 4499,
      "водой": 4500,
      "телю": 4501,
      "течение": 4502,
      "мок": 4503,
      "мороз": 4504,
      "добра": 4505,
      "вера": 4506,
      "тишь": 4507,
      "виз": 4508,
      "вич": 4509,
      "дик": 4510,
      "выло": 4511,
      "выпла": 4512,
      "хохол": 4513,
      "стату": 4514,
      "мусо": 4515,
      "нутся": 4516,
      "пал": 4517,
      "парень": 4518,
      "сать": 4519,
      "рые": 4520,
      "бето": 4521,
      "бесс": 4522,
      "пишет": 4523,
      "туре": 4524,
      "бар": 4525,
      "бабки": 4526,
      "люблю": 4527,
      "гали": 4528,
      "нному": 4529,
      "жной": 4530,
      "превы": 4531,
      "Пол": 4532,
      "жается": 4533,
      "интел": 4534,
      "знания": 4535,
      "переста": 4536,
      "перевод": 4537,
      "работки": 4538,
      "треды": 4539,
      "дном": 4540,
      "граду": 4541,
      "меняется": 4542,
      "перво": 4543,
      "ственная": 4544,
      "слову": 4545,
      "гент": 4546,
      "очевидно": 4547,
      "тности": 4548,
      "остался": 4549,
      "казалось": 4550,
      "класса": 4551,
      "выйдет": 4552,
      "грузо": 4553,
      "слабо": 4554,
      "смотрели": 4555,
      "тивный": 4556,
      "ставит": 4557,
      "Рас": 4558,
      "считает": 4559,
      "банки": 4560,
      "продажи": 4561,
      "Россию": 4562,
      "твор": 4563,
      "обраща": 4564,
      "вопросов": 4565,
      "телями": 4566,
      "Дол": 4567,
      "идее": 4568,
      "кризи": 4569,
      "покупают": 4570,
      "отличие": 4571,
      "видишь": 4572,
      "власть": 4573,
      "создать": 4574,
      "потреби": 4575,
      "процессо": 4576,
      "нарушение": 4577,
      "тысячи": 4578,
      "легче": 4579,
      "смотрят": 4580,
      "магазина": 4581,
      "Москва": 4582,
      "подозре": 4583,
      "используют": 4584,
      "ing": 4585,
      "попробовать": 4586,
      "миллиона": 4587,
      "оказалось": 4588,
      "интернета": 4589,
      "эффектив": 4590,
      "поздно": 4591,
      "очередной": 4592,
      "съе": 4593,
      "заявление": 4594,
      "аппарат": 4595,
      "Рус": 4596,
      "ресурсы": 4597,
      "территории": 4598,
      "сравнивать": 4599,
      "номера": 4600,
      "Пыня": 4601,
      "Странно": 4602,
      "предприятия": 4603,
      "ХУЙ": 4604,
      "взгляд": 4605,
      "февраля": 4606,
      "наличии": 4607,
      "регулярно": 4608,
      "определё": 4609,
      "пишешь": 4610,
      "Короче": 4611,
      "250": 4612,
      "55": 4613,
      "om": 4614,
      "ВК": 4615,
      "Вся": 4616,
      "ДЬ": 4617,
      "ЕБА": 4618,
      "ИН": 4619,
      "Мин": 4620,
      "НЬ": 4621,
      "ПК": 4622,
      "Фе": 4623,
      "бм": 4624,
      "ева": 4625,
      "зра": 4626,
      "лёт": 4627,
      "оны": 4628,
      "празд": 4629,
      "сх": 4630,
      "свиде": 4631,
      "твое": 4632,
      "уу": 4633,
      "уще": 4634,
      "уходит": 4635,
      "умира": 4636,
      "упомина": 4637,
      "якобы": 4638,
      "тобой": 4639,
      "ноут": 4640,
      "наказа": 4641,
      "насило": 4642,
      "непри": 4643,
      "непло": 4644,
      "неадеква": 4645,
      "пола": 4646,
      "поможет": 4647,
      "посла": 4648,
      "рат": 4649,
      "радо": 4650,
      "рово": 4651,
      "роста": 4652,
      "ресто": 4653,
      "дене": 4654,
      "заря": 4655,
      "закан": 4656,
      "рин": 4657,
      "ления": 4658,
      "море": 4659,
      "моем": 4660,
      "досто": 4661,
      "желе": 4662,
      "вещей": 4663,
      "прой": 4664,
      "типи": 4665,
      "тиков": 4666,
      "тинг": 4667,
      "рубля": 4668,
      "диться": 4669,
      "отзы": 4670,
      "кусок": 4671,
      "нуле": 4672,
      "парти": 4673,
      "санк": 4674,
      "развле": 4675,
      "разделе": 4676,
      "нях": 4677,
      "бана": 4678,
      "нье": 4679,
      "нья": 4680,
      "препара": 4681,
      "жали": 4682,
      "правы": 4683,
      "щики": 4684,
      "зит": 4685,
      "вред": 4686,
      "возника": 4687,
      "тельную": 4688,
      "мясо": 4689,
      "цами": 4690,
      "безлими": 4691,
      "вляет": 4692,
      "тность": 4693,
      "предполо": 4694,
      "самозаня": 4695,
      "оставить": 4696,
      "совко": 4697,
      "хорошего": 4698,
      "автора": 4699,
      "поняли": 4700,
      "крови": 4701,
      "ближе": 4702,
      "каждой": 4703,
      "фильмов": 4704,
      "систему": 4705,
      "самым": 4706,
      "Вели": 4707,
      "написать": 4708,
      "офис": 4709,
      "сюжет": 4710,
      "установле": 4711,
      "радиа": 4712,
      "использования": 4713,
      "канале": 4714,
      "транс": 4715,
      "временно": 4716,
      "показатель": 4717,
      "двумя": 4718,
      "Судя": 4719,
      "налого": 4720,
      "учетом": 4721,
      "пожар": 4722,
      "янва": 4723,
      "миллионов": 4724,
      "будете": 4725,
      "эксплу": 4726,
      "емых": 4727,
      "Лично": 4728,
      "надеюсь": 4729,
      "капитализ": 4730,
      "договора": 4731,
      "маленький": 4732,
      "психо": 4733,
      "проекта": 4734,
      "соответственно": 4735,
      "модератора": 4736,
      "ребенок": 4737,
      "Лол": 4738,
      "исследования": 4739,
      "секун": 4740,
      "порядке": 4741,
      "масшта": 4742,
      "предупре": 4743,
      "шизофре": 4744,
      "Крым": 4745,
      "президента": 4746,
      "адрес": 4747,
      "Ебать": 4748,
      "велоси": 4749,
      "оказывается": 4750,
      "ter": 4751,
      "ДУ": 4752,
      "Крас": 4753,
      "Пла": 4754,
      "Фран": 4755,
      "ШЬ": 4756,
      "бку": 4757,
      "блу": 4758,
      "дри": 4759,
      "зки": 4760,
      "ими": 4761,
      "лле": 4762,
      "опы": 4763,
      "пр": 4764,
      "спер": 4765,
      "сцена": 4766,
      "сверх": 4767,
      "счастли": 4768,
      "уголо": 4769,
      "управля": 4770,
      "тором": 4771,
      "носить": 4772,
      "научи": 4773,
      "посред": 4774,
      "поеха": 4775,
      "поступа": 4776,
      "стр": 4777,
      "нице": 4778,
      "рение": 4779,
      "реша": 4780,
      "рези": 4781,
      "деров": 4782,
      "дам": 4783,
      "данным": 4784,
      "ристи": 4785,
      "рится": 4786,
      "меч": 4787,
      "мега": 4788,
      "дова": 4789,
      "ченные": 4790,
      "кисло": 4791,
      "кинуть": 4792,
      "проку": 4793,
      "прожи": 4794,
      "прочих": 4795,
      "соли": 4796,
      "руку": 4797,
      "отби": 4798,
      "отделе": 4799,
      "педо": 4800,
      "ляция": 4801,
      "пришли": 4802,
      "пала": 4803,
      "пары": 4804,
      "изда": 4805,
      "обно": 4806,
      "обма": 4807,
      "белые": 4808,
      "няка": 4809,
      "предоста": 4810,
      "Похо": 4811,
      "коммент": 4812,
      "скажу": 4813,
      "щика": 4814,
      "щиков": 4815,
      "знаем": 4816,
      "плата": 4817,
      "своему": 4818,
      "хуи": 4819,
      "делаю": 4820,
      "расстоя": 4821,
      "ужели": 4822,
      "Наде": 4823,
      "общество": 4824,
      "общества": 4825,
      "ровка": 4826,
      "смогли": 4827,
      "щают": 4828,
      "работала": 4829,
      "имел": 4830,
      "фер": 4831,
      "трой": 4832,
      "одически": 4833,
      "круто": 4834,
      "Такие": 4835,
      "искус": 4836,
      "техники": 4837,
      "трудно": 4838,
      "каждом": 4839,
      "другими": 4840,
      "собствен": 4841,
      "2014": 4842,
      "минуты": 4843,
      "помни": 4844,
      "внезап": 4845,
      "хвата": 4846,
      "коррек": 4847,
      "Самое": 4848,
      "больших": 4849,
      "алка": 4850,
      "пытается": 4851,
      "ставят": 4852,
      "Пикабу": 4853,
      "восста": 4854,
      "желания": 4855,
      "согласи": 4856,
      "солне": 4857,
      "скорости": 4858,
      "станции": 4859,
      "стандар": 4860,
      "глубо": 4861,
      "глуби": 4862,
      "количе": 4863,
      "наверно": 4864,
      "собака": 4865,
      "древ": 4866,
      "случайно": 4867,
      "договор": 4868,
      "ходятся": 4869,
      "ролик": 4870,
      "красиво": 4871,
      "советую": 4872,
      "причине": 4873,
      "показывает": 4874,
      "музыку": 4875,
      "картинки": 4876,
      "поезд": 4877,
      "пользователей": 4878,
      "заранее": 4879,
      "проститу": 4880,
      "влияет": 4881,
      "характери": 4882,
      "оружие": 4883,
      "наблюда": 4884,
      "обосрался": 4885,
      "фанта": 4886,
      "Главное": 4887,
      "законода": 4888,
      "аниме": 4889,
      "порядок": 4890,
      "повезло": 4891,
      "кирпи": 4892,
      "интеллек": 4893,
      "de": 4894,
      "ws": 4895,
      "Много": 4896,
      "НГ": 4897,
      "СВО": 4898,
      "Ян": 4899,
      "ав": 4900,
      "гну": 4901,
      "дкой": 4902,
      "ебе": 4903,
      "зря": 4904,
      "нё": 4905,
      "оправда": 4906,
      "пс": 4907,
      "свар": 4908,
      "тным": 4909,
      "тную": 4910,
      "уй": 4911,
      "ус": 4912,
      "упо": 4913,
      "шник": 4914,
      "тологи": 4915,
      "поменять": 4916,
      "рад": 4917,
      "рано": 4918,
      "роваться": 4919,
      "кора": 4920,
      "ничем": 4921,
      "кали": 4922,
      "рения": 4923,
      "валю": 4924,
      "ваете": 4925,
      "вашей": 4926,
      "вон": 4927,
      "затем": 4928,
      "завода": 4929,
      "лома": 4930,
      "леги": 4931,
      "мою": 4932,
      "жерт": 4933,
      "чером": 4934,
      "мастер": 4935,
      "бону": 4936,
      "борь": 4937,
      "вики": 4938,
      "дишь": 4939,
      "чаться": 4940,
      "сидит": 4941,
      "чисти": 4942,
      "парт": 4943,
      "души": 4944,
      "размер": 4945,
      "развали": 4946,
      "балан": 4947,
      "людь": 4948,
      "мыть": 4949,
      "подня": 4950,
      "акту": 4951,
      "рять": 4952,
      "жаться": 4953,
      "пути": 4954,
      "пусты": 4955,
      "знали": 4956,
      "значает": 4957,
      "платит": 4958,
      "своем": 4959,
      "фигу": 4960,
      "расстре": 4961,
      "перспе": 4962,
      "Нахуй": 4963,
      "тратить": 4964,
      "смогут": 4965,
      "думаешь": 4966,
      "нюан": 4967,
      "Вол": 4968,
      "Такая": 4969,
      "пизду": 4970,
      "армии": 4971,
      "соблю": 4972,
      "средней": 4973,
      "НАТО": 4974,
      "вышел": 4975,
      "цом": 4976,
      "видим": 4977,
      "любого": 4978,
      "Больше": 4979,
      "занимаются": 4980,
      "закона": 4981,
      "назвать": 4982,
      "стями": 4983,
      "россиян": 4984,
      "пустил": 4985,
      "статьи": 4986,
      "тарифа": 4987,
      "временем": 4988,
      "учё": 4989,
      "количества": 4990,
      "ремонта": 4991,
      "земля": 4992,
      "деревне": 4993,
      "Через": 4994,
      "короче": 4995,
      "миллиар": 4996,
      "емые": 4997,
      "берет": 4998,
      "мозг": 4999,
      "сексу": 5000,
      "информации": 5001,
      "следующий": 5002,
      "группы": 5003,
      "шлюха": 5004,
      "позже": 5005,
      "бюдже": 5006,
      "технологии": 5007,
      "хрена": 5008,
      "клиентов": 5009,
      "музыка": 5010,
      "НЫЙ": 5011,
      "дегенерат": 5012,
      "прошлого": 5013,
      "сравнению": 5014,
      "мульт": 5015,
      "сериал": 5016,
      "Хуй": 5017,
      "аудито": 5018,
      "Помню": 5019,
      "велосипе": 5020,
      "людьми": 5021,
      "ol": 5022,
      "un": 5023,
      "Ай": 5024,
      "ИИ": 5025,
      "Мак": 5026,
      "Сво": 5027,
      "Скоро": 5028,
      "Тот": 5029,
      "Хм": 5030,
      "або": 5031,
      "бред": 5032,
      "гнали": 5033,
      "дни": 5034,
      "дверь": 5035,
      "жра": 5036,
      "пь": 5037,
      "пку": 5038,
      "ссов": 5039,
      "сходить": 5040,
      "уте": 5041,
      "убы": 5042,
      "ээ": 5043,
      "ёте": 5044,
      "находи": 5045,
      "наконец": 5046,
      "нек": 5047,
      "нега": 5048,
      "недель": 5049,
      "независи": 5050,
      "немец": 5051,
      "пок": 5052,
      "пошел": 5053,
      "пошло": 5054,
      "попыт": 5055,
      "поскольку": 5056,
      "раси": 5057,
      "лиц": 5058,
      "каль": 5059,
      "кафе": 5060,
      "казывать": 5061,
      "депре": 5062,
      "табли": 5063,
      "дадут": 5064,
      "давление": 5065,
      "даун": 5066,
      "зале": 5067,
      "лоб": 5068,
      "лени": 5069,
      "мес": 5070,
      "дор": 5071,
      "доми": 5072,
      "жел": 5073,
      "жете": 5074,
      "ческом": 5075,
      "пробе": 5076,
      "вида": 5077,
      "дире": 5078,
      "выру": 5079,
      "кула": 5080,
      "станов": 5081,
      "старой": 5082,
      "сила": 5083,
      "прико": 5084,
      "прили": 5085,
      "прибыли": 5086,
      "пришлось": 5087,
      "пам": 5088,
      "избе": 5089,
      "развод": 5090,
      ".....": 5091,
      "буха": 5092,
      "льности": 5093,
      "пресс": 5094,
      "преступ": 5095,
      "билет": 5096,
      "мысле": 5097,
      "подписа": 5098,
      "подклю": 5099,
      "подходит": 5100,
      "комфор": 5101,
      "компен": 5102,
      "сказыва": 5103,
      "перекры": 5104,
      "худ": 5105,
      "фикси": 5106,
      "делается": 5107,
      "стены": 5108,
      "спон": 5109,
      "фору": 5110,
      "расче": 5111,
      "раскры": 5112,
      "рассказал": 5113,
      "расходы": 5114,
      "Насколько": 5115,
      "долба": 5116,
      "возник": 5117,
      "очевид": 5118,
      "бления": 5119,
      "скре": 5120,
      "термина": 5121,
      "вляют": 5122,
      "останов": 5123,
      "Также": 5124,
      "дорога": 5125,
      "зут": 5126,
      "креп": 5127,
      "одино": 5128,
      "славя": 5129,
      "Причина": 5130,
      "пиздо": 5131,
      "квадра": 5132,
      "испра": 5133,
      "русского": 5134,
      "обычные": 5135,
      "Сол": 5136,
      "форме": 5137,
      "понимать": 5138,
      "Никогда": 5139,
      "вшись": 5140,
      "учить": 5141,
      "токси": 5142,
      "РАЗ": 5143,
      "Откуда": 5144,
      "Мало": 5145,
      "пытаются": 5146,
      "пытались": 5147,
      "говном": 5148,
      "Питере": 5149,
      "установи": 5150,
      "рекламу": 5151,
      "бертариан": 5152,
      "свободы": 5153,
      "магазины": 5154,
      "зарплату": 5155,
      "ремон": 5156,
      "коммуна": 5157,
      "справедли": 5158,
      "мозги": 5159,
      "программ": 5160,
      "Послед": 5161,
      "пруфы": 5162,
      "пенсии": 5163,
      "опти": 5164,
      "возраста": 5165,
      "эффект": 5166,
      "медле": 5167,
      "угро": 5168,
      "Типа": 5169,
      "ПРОСТО": 5170,
      "живёт": 5171,
      "пункт": 5172,
      "демон": 5173,
      "секунд": 5174,
      "Работа": 5175,
      "ужас": 5176,
      "касается": 5177,
      "пишите": 5178,
      "сильнее": 5179,
      "большинстве": 5180,
      "открове": 5181,
      "памяти": 5182,
      "судеб": 5183,
      "Росста": 5184,
      "эксплуата": 5185,
      "Надеюсь": 5186,
      "компенса": 5187,
      "36": 5188,
      "95": 5189,
      "Блин": 5190,
      "ГУ": 5191,
      "ДД": 5192,
      "ДТП": 5193,
      "Исто": 5194,
      "Ох": 5195,
      "Оши": 5196,
      "Уж": 5197,
      "Эх": 5198,
      "вдо": 5199,
      "дке": 5200,
      "двой": 5201,
      "еды": 5202,
      "жрать": 5203,
      "имо": 5204,
      "мся": 5205,
      "осе": 5206,
      "осуще": 5207,
      "пта": 5208,
      "спло": 5209,
      "сэкономи": 5210,
      "участи": 5211,
      "фили": 5212,
      "шная": 5213,
      "ъя": 5214,
      "ностью": 5215,
      "навы": 5216,
      "набе": 5217,
      "нашего": 5218,
      "нарисо": 5219,
      "нев": 5220,
      "неу": 5221,
      "расто": 5222,
      "рождения": 5223,
      "ково": 5224,
      "нигде": 5225,
      "линии": 5226,
      "рет": 5227,
      "револю": 5228,
      "детали": 5229,
      "воро": 5230,
      "дарт": 5231,
      "запро": 5232,
      "мель": 5233,
      "моё": 5234,
      "моих": 5235,
      "мошен": 5236,
      "дольше": 5237,
      "дохуя": 5238,
      "достой": 5239,
      "жек": 5240,
      "желез": 5241,
      "чению": 5242,
      "прочем": 5243,
      "прописа": 5244,
      "проводи": 5245,
      "прозра": 5246,
      "мани": 5247,
      "сел": 5248,
      "сель": 5249,
      "семей": 5250,
      "видела": 5251,
      "висит": 5252,
      "выс": 5253,
      "вызыва": 5254,
      "выступа": 5255,
      "выбирать": 5256,
      "выясни": 5257,
      "отдать": 5258,
      "пев": 5259,
      "чают": 5260,
      "часы": 5261,
      "мусли": 5262,
      "присут": 5263,
      "нула": 5264,
      "пад": 5265,
      "издели": 5266,
      "белый": 5267,
      "дурак": 5268,
      "щен": 5269,
      "було": 5270,
      "баба": 5271,
      "газо": 5272,
      "жие": 5273,
      "жига": 5274,
      "ценно": 5275,
      "препода": 5276,
      "ряда": 5277,
      "Поли": 5278,
      "чном": 5279,
      "инду": 5280,
      "путь": 5281,
      "хам": 5282,
      "которыми": 5283,
      "общего": 5284,
      "долги": 5285,
      "ссия": 5286,
      "терна": 5287,
      "насчет": 5288,
      "предпринима": 5289,
      "останавли": 5290,
      "англи": 5291,
      "резко": 5292,
      "дороге": 5293,
      "править": 5294,
      "ебаный": 5295,
      "тян": 5296,
      "вязыва": 5297,
      "бляд": 5298,
      "ственной": 5299,
      "стыдно": 5300,
      "тивная": 5301,
      "считается": 5302,
      "твою": 5303,
      "стороне": 5304,
      "игно": 5305,
      "особы": 5306,
      "хватило": 5307,
      "голосо": 5308,
      "света": 5309,
      "системе": 5310,
      "множе": 5311,
      "пытаться": 5312,
      "ПОД": 5313,
      "помогает": 5314,
      "открыть": 5315,
      "окна": 5316,
      "любому": 5317,
      "Более": 5318,
      "ставь": 5319,
      "список": 5320,
      "походу": 5321,
      "потреб": 5322,
      "парков": 5323,
      "пустим": 5324,
      "готовы": 5325,
      "стандарт": 5326,
      "быдла": 5327,
      "условий": 5328,
      "района": 5329,
      "налогов": 5330,
      "объясня": 5331,
      "Сирии": 5332,
      "дорогой": 5333,
      "and": 5334,
      "отказ": 5335,
      "двор": 5336,
      "Украины": 5337,
      "резать": 5338,
      "культур": 5339,
      "киноте": 5340,
      "регули": 5341,
      "планеты": 5342,
      "реакция": 5343,
      "кредита": 5344,
      "начнут": 5345,
      "режим": 5346,
      "требует": 5347,
      "сервис": 5348,
      "светодио": 5349,
      "покупки": 5350,
      "сериа": 5351,
      "здраво": 5352,
      "бензин": 5353,
      "располо": 5354,
      "мотива": 5355,
      "растет": 5356,
      "благодаря": 5357,
      "транспорта": 5358,
      "Александ": 5359,
      "однозначно": 5360,
      "ущер": 5361,
      "120": 5362,
      "47": 5363,
      "ot": 5364,
      "АЙ": 5365,
      "Амери": 5366,
      "Бла": 5367,
      "Доста": 5368,
      "ЛУ": 5369,
      "Обо": 5370,
      "Слу": 5371,
      "Сразу": 5372,
      "ТБ": 5373,
      "ЦА": 5374,
      "ЩЕ": 5375,
      "ЭС": 5376,
      "ага": 5377,
      "брасы": 5378,
      "влю": 5379,
      "вкой": 5380,
      "вью": 5381,
      "гб": 5382,
      "дж": 5383,
      "двое": 5384,
      "рку": 5385,
      "сбо": 5386,
      "тё": 5387,
      "тке": 5388,
      "ура": 5389,
      "убо": 5390,
      "фла": 5391,
      "шный": 5392,
      "эн": 5393,
      "ёх": 5394,
      "ноги": 5395,
      "нагре": 5396,
      "настрое": 5397,
      "наслед": 5398,
      "нета": 5399,
      "нете": 5400,
      "поку": 5401,
      "ранее": 5402,
      "кома": 5403,
      "рель": 5404,
      "вах": 5405,
      "вашего": 5406,
      "дент": 5407,
      "таска": 5408,
      "вость": 5409,
      "теры": 5410,
      "дау": 5411,
      "забира": 5412,
      "заряд": 5413,
      "заставля": 5414,
      "заводе": 5415,
      "лест": 5416,
      "летит": 5417,
      "мем": 5418,
      "могло": 5419,
      "жено": 5420,
      "чено": 5421,
      "век": 5422,
      "верить": 5423,
      "сятся": 5424,
      "проте": 5425,
      "пробо": 5426,
      "проби": 5427,
      "прошел": 5428,
      "прочитал": 5429,
      "соси": 5430,
      "дим": 5431,
      "мит": 5432,
      "мигра": 5433,
      "выбро": 5434,
      "выбора": 5435,
      "чах": 5436,
      "чист": 5437,
      "чивая": 5438,
      "принад": 5439,
      "пари": 5440,
      "патри": 5441,
      "изу": 5442,
      "обстоя": 5443,
      "бей": 5444,
      "писки": 5445,
      "разницы": 5446,
      "няют": 5447,
      "бара": 5448,
      "гай": 5449,
      "широ": 5450,
      "целе": 5451,
      "суб": 5452,
      "онлайн": 5453,
      "жах": 5454,
      "чность": 5455,
      "значи": 5456,
      "перевоз": 5457,
      "плачу": 5458,
      "верное": 5459,
      "фило": 5460,
      "шари": 5461,
      "распре": 5462,
      "ментом": 5463,
      "сложнее": 5464,
      "гене": 5465,
      "полной": 5466,
      "большей": 5467,
      "представить": 5468,
      "самостоя": 5469,
      "война": 5470,
      "Мой": 5471,
      "рованный": 5472,
      "феми": 5473,
      "Точно": 5474,
      "ющими": 5475,
      "человеком": 5476,
      "ждал": 5477,
      "квар": 5478,
      "порно": 5479,
      "жизне": 5480,
      "альтерна": 5481,
      "плей": 5482,
      "пление": 5483,
      "хохла": 5484,
      "форс": 5485,
      "играет": 5486,
      "положи": 5487,
      "питание": 5488,
      "заметил": 5489,
      "везли": 5490,
      "Весь": 5491,
      "видите": 5492,
      "помощь": 5493,
      "плохой": 5494,
      "Тебе": 5495,
      "Дела": 5496,
      "умеет": 5497,
      "пидорашка": 5498,
      "ракеты": 5499,
      "обязаны": 5500,
      "пустили": 5501,
      "развитие": 5502,
      "стройки": 5503,
      "готовле": 5504,
      "называют": 5505,
      "станция": 5506,
      "собак": 5507,
      "дебилы": 5508,
      "можем": 5509,
      "десять": 5510,
      "состояния": 5511,
      "Либо": 5512,
      "население": 5513,
      "следует": 5514,
      "чувство": 5515,
      "ролики": 5516,
      "соответству": 5517,
      "возрасте": 5518,
      "половина": 5519,
      "спубли": 5520,
      "появится": 5521,
      "бизне": 5522,
      "тяжело": 5523,
      "шенко": 5524,
      "относится": 5525,
      "поезда": 5526,
      "цифры": 5527,
      "маркетин": 5528,
      "Ладно": 5529,
      "температура": 5530,
      "доказать": 5531,
      "службы": 5532,
      "друзей": 5533,
      "серьезно": 5534,
      "президент": 5535,
      "ответственность": 5536,
      "распростра": 5537,
      "шанс": 5538,
      "телевизор": 5539,
      "Хохлы": 5540,
      "середине": 5541,
      "пассажи": 5542,
      "буквально": 5543,
      "мысль": 5544,
      "характеристи": 5545,
      "29": 5546,
      "33": 5547,
      "65": 5548,
      "68": 5549,
      "as": 5550,
      "av": 5551,
      "ДЫ": 5552,
      "ЗО": 5553,
      "Здесь": 5554,
      "Иди": 5555,
      "МЫ": 5556,
      "НТ": 5557,
      "Пра": 5558,
      "Пар": 5559,
      "Ря": 5560,
      "СЬ": 5561,
      "СМО": 5562,
      "Тре": 5563,
      "Хоче": 5564,
      "ахуе": 5565,
      "авиа": 5566,
      "вк": 5567,
      "вло": 5568,
      "дцы": 5569,
      "дём": 5570,
      "еру": 5571,
      "зве": 5572,
      "ию": 5573,
      "оф": 5574,
      "ост": 5575,
      "ота": 5576,
      "оло": 5577,
      "оправды": 5578,
      "означает": 5579,
      "рф": 5580,
      "сны": 5581,
      "свали": 5582,
      "трас": 5583,
      "увы": 5584,
      "убор": 5585,
      "украи": 5586,
      "уточ": 5587,
      "фран": 5588,
      "хх": 5589,
      "хим": 5590,
      "чёр": 5591,
      "эй": 5592,
      "як": 5593,
      "топи": 5594,
      "носят": 5595,
      "напи": 5596,
      "небо": 5597,
      "пое": 5598,
      "пот": 5599,
      "пога": 5600,
      "повре": 5601,
      "пойти": 5602,
      "посове": 5603,
      "роль": 5604,
      "роды": 5605,
      "кота": 5606,
      "корот": 5607,
      "ниц": 5608,
      "никуда": 5609,
      "лии": 5610,
      "лист": 5611,
      "реше": 5612,
      "гора": 5613,
      "госпо": 5614,
      "ваго": 5615,
      "валь": 5616,
      "ваны": 5617,
      "ваше": 5618,
      "вающий": 5619,
      "вашему": 5620,
      "зал": 5621,
      "зача": 5622,
      "залу": 5623,
      "завер": 5624,
      "засра": 5625,
      "захва": 5626,
      "риск": 5627,
      "лес": 5628,
      "мони": 5629,
      "веке": 5630,
      "продаже": 5631,
      "пройти": 5632,
      "маг": 5633,
      "мами": 5634,
      "маги": 5635,
      "тике": 5636,
      "тился": 5637,
      "сотни": 5638,
      "видит": 5639,
      "оттуда": 5640,
      "ходной": 5641,
      "лял": 5642,
      "лях": 5643,
      "ляли": 5644,
      "ставле": 5645,
      "сик": 5646,
      "число": 5647,
      "чистить": 5648,
      "муля": 5649,
      "сток": 5650,
      "сан": 5651,
      "изобре": 5652,
      "дует": 5653,
      "щении": 5654,
      "буй": 5655,
      "бах": 5656,
      "гады": 5657,
      "шили": 5658,
      "предела": 5659,
      "акка": 5660,
      "коммер": 5661,
      "инвали": 5662,
      "значения": 5663,
      "значительно": 5664,
      "третий": 5665,
      "хуё": 5666,
      "стере": 5667,
      "стекло": 5668,
      "конфе": 5669,
      "зовать": 5670,
      "зировать": 5671,
      "Норма": 5672,
      "летки": 5673,
      "красо": 5674,
      "очереди": 5675,
      "мяса": 5676,
      "вляется": 5677,
      "предме": 5678,
      "остаётся": 5679,
      "останется": 5680,
      "глаз": 5681,
      "плоть": 5682,
      "имхо": 5683,
      "деньгами": 5684,
      "карте": 5685,
      "человеку": 5686,
      "лучший": 5687,
      "лучших": 5688,
      "хими": 5689,
      "ждая": 5690,
      "фар": 5691,
      "говоришь": 5692,
      "бляди": 5693,
      "стый": 5694,
      "ваясь": 5695,
      "нормальных": 5696,
      "врача": 5697,
      "почки": 5698,
      "продавать": 5699,
      "маргина": 5700,
      "орби": 5701,
      "доставка": 5702,
      "твоих": 5703,
      "жопе": 5704,
      "последстви": 5705,
      "корруп": 5706,
      "купили": 5707,
      "зеле": 5708,
      "компаний": 5709,
      "плохого": 5710,
      "День": 5711,
      "обычной": 5712,
      "Пидора": 5713,
      "регистри": 5714,
      "товары": 5715,
      "использование": 5716,
      "россия": 5717,
      "падают": 5718,
      "статья": 5719,
      "Речь": 5720,
      "показать": 5721,
      "удивля": 5722,
      "скоростью": 5723,
      "начинают": 5724,
      "начинается": 5725,
      "наверняка": 5726,
      "успел": 5727,
      "Челове": 5728,
      "Москвы": 5729,
      "тупоры": 5730,
      "умный": 5731,
      "узнал": 5732,
      "отказыва": 5733,
      "группа": 5734,
      "рамках": 5735,
      "периодически": 5736,
      "шлюх": 5737,
      "китайцы": 5738,
      "активи": 5739,
      "венти": 5740,
      "позиция": 5741,
      "необходимости": 5742,
      "снимать": 5743,
      "модератор": 5744,
      "мелкие": 5745,
      "возвраща": 5746,
      "ace": 5747,
      "проститут": 5748,
      "здоровья": 5749,
      "здоровье": 5750,
      "проверки": 5751,
      "сообщения": 5752,
      "мужчин": 5753,
      "материалы": 5754,
      "оформ": 5755,
      "Согласен": 5756,
      "фотографии": 5757,
      "устройства": 5758,
      "баксов": 5759,
      "дерьмо": 5760,
      "целью": 5761,
      "асфаль": 5762,
      "приходилось": 5763,
      "путеше": 5764,
      "аватар": 5765,
      "нескольких": 5766,
      "внезапно": 5767,
      "48": 5768,
      "49": 5769,
      "ab": 5770,
      "th": 5771,
      "Блять": 5772,
      "ВП": 5773,
      "Вспо": 5774,
      "ЖА": 5775,
      "Жаль": 5776,
      "Жен": 5777,
      "Роди": 5778,
      "ТВ": 5779,
      "ФИ": 5780,
      "ХХ": 5781,
      "Хз": 5782,
      "Хар": 5783,
      "ЮТ": 5784,
      "Япо": 5785,
      "вниз": 5786,
      "вшая": 5787,
      "др": 5788,
      "еле": 5789,
      "кр": 5790,
      "квали": 5791,
      "лкой": 5792,
      "нком": 5793,
      "нской": 5794,
      "осу": 5795,
      "оке": 5796,
      "осве": 5797,
      "опровер": 5798,
      "рный": 5799,
      "св": 5800,
      "спиз": 5801,
      "тва": 5802,
      "ур": 5803,
      "убрать": 5804,
      "чле": 5805,
      "шиз": 5806,
      "шной": 5807,
      "шками": 5808,
      "эпи": 5809,
      "торе": 5810,
      "нова": 5811,
      "нопла": 5812,
      "повер": 5813,
      "построе": 5814,
      "пофиг": 5815,
      "раструк": 5816,
      "рашке": 5817,
      "рон": 5818,
      "лика": 5819,
      "листов": 5820,
      "реда": 5821,
      "репор": 5822,
      "решает": 5823,
      "давайте": 5824,
      "забрать": 5825,
      "заключа": 5826,
      "заебали": 5827,
      "рим": 5828,
      "мон": 5829,
      "моим": 5830,
      "доби": 5831,
      "доктор": 5832,
      "вец": 5833,
      "ведут": 5834,
      "проши": 5835,
      "проход": 5836,
      "просмот": 5837,
      "седа": 5838,
      "серти": 5839,
      "тились": 5840,
      "тилась": 5841,
      "собрать": 5842,
      "собесе": 5843,
      "винов": 5844,
      "дипло": 5845,
      "дичь": 5846,
      "диску": 5847,
      "миру": 5848,
      "высе": 5849,
      "выпуска": 5850,
      "выпуск": 5851,
      "отсюда": 5852,
      "купле": 5853,
      "хоз": 5854,
      "лям": 5855,
      "стана": 5856,
      "стане": 5857,
      "чиком": 5858,
      "шед": 5859,
      "приз": 5860,
      "нуло": 5861,
      "нулся": 5862,
      "сад": 5863,
      "сап": 5864,
      "сало": 5865,
      "саха": 5866,
      "изобра": 5867,
      "рыба": 5868,
      "разили": 5869,
      "разговари": 5870,
      "нями": 5871,
      "гани": 5872,
      "жий": 5873,
      "ниях": 5874,
      "цер": 5875,
      "цепи": 5876,
      "судить": 5877,
      "бир": 5878,
      "подска": 5879,
      "подразуме": 5880,
      "онный": 5881,
      "Пости": 5882,
      "жат": 5883,
      "сками": 5884,
      "скажем": 5885,
      "щины": 5886,
      "пуль": 5887,
      "пережи": 5888,
      "рабочих": 5889,
      "вность": 5890,
      "хули": 5891,
      "фик": 5892,
      "спорить": 5893,
      "град": 5894,
      "зоне": 5895,
      "хая": 5896,
      "страда": 5897,
      "зываться": 5898,
      "словам": 5899,
      "ходила": 5900,
      "тельств": 5901,
      "Давно": 5902,
      "Давайте": 5903,
      "вскры": 5904,
      "пыты": 5905,
      "работали": 5906,
      "читайте": 5907,
      "предполага": 5908,
      "Могу": 5909,
      "резер": 5910,
      "рован": 5911,
      "ровая": 5912,
      "рованные": 5913,
      "плохие": 5914,
      "думать": 5915,
      "трол": 5916,
      "Кому": 5917,
      "Кажды": 5918,
      "ждает": 5919,
      "фана": 5920,
      "говорили": 5921,
      "пиздеть": 5922,
      "испыты": 5923,
      "тормо": 5924,
      "русским": 5925,
      "альным": 5926,
      "самсу": 5927,
      "рье": 5928,
      "полицей": 5929,
      "объем": 5930,
      "Всегда": 5931,
      "всякой": 5932,
      "всякий": 5933,
      "сделает": 5934,
      "удалось": 5935,
      "пойдет": 5936,
      "основ": 5937,
      "основании": 5938,
      "условно": 5939,
      "высоко": 5940,
      "Тебя": 5941,
      "молоде": 5942,
      "стрим": 5943,
      "процессе": 5944,
      "грамм": 5945,
      "родителей": 5946,
      "стям": 5947,
      "воспринима": 5948,
      "оператора": 5949,
      "держит": 5950,
      "магазинах": 5951,
      "продукт": 5952,
      "Сука": 5953,
      "мужчина": 5954,
      "вказ": 5955,
      "тические": 5956,
      "область": 5957,
      "используются": 5958,
      "удобнее": 5959,
      "предложение": 5960,
      "десяти": 5961,
      "десятки": 5962,
      "телефоне": 5963,
      "телефоны": 5964,
      "программи": 5965,
      "договоре": 5966,
      "маленькие": 5967,
      "терапев": 5968,
      "собирать": 5969,
      "ориен": 5970,
      "девушки": 5971,
      "необходимо": 5972,
      "безопас": 5973,
      "рубль": 5974,
      "заявле": 5975,
      "аппарата": 5976,
      "долбоеб": 5977,
      "задача": 5978,
      "старый": 5979,
      "понравился": 5980,
      "Первый": 5981,
      "литров": 5982,
      "Европе": 5983,
      "версия": 5984,
      "скрин": 5985,
      "температуры": 5986,
      "бутылку": 5987,
      "светофо": 5988,
      "петух": 5989,
      "сосать": 5990,
      "материалов": 5991,
      "пароль": 5992,
      "Согласно": 5993,
      "источник": 5994,
      "металл": 5995,
      "разреше": 5996,
      "автобус": 5997,
      "теории": 5998,
      "произошло": 5999,
      "счета": 6000,
      "рейтинг": 6001,
      "отец": 6002,
      "поколения": 6003,
      "оборудование": 6004,
      "удовольствием": 6005,
      "клуб": 6006,
      "капиталисти": 6007,
      "журнали": 6008,
      "ТЕРПИ": 6009,
      "Земли": 6010,
      "акаде": 6011,
      "союз": 6012,
      "взаимо": 6013,
      "Похоже": 6014,
      "бюджета": 6015,
      "900": 6016,
      "The": 6017,
      "ap": 6018,
      "ge": 6019,
      "ia": 6020,
      "Аль": 6021,
      "Виде": 6022,
      "Год": 6023,
      "Здра": 6024,
      "КП": 6025,
      "Кру": 6026,
      "СК": 6027,
      "ШИ": 6028,
      "брен": 6029,
      "вству": 6030,
      "включе": 6031,
      "впервые": 6032,
      "гг": 6033,
      "гвоз": 6034,
      "звез": 6035,
      "иско": 6036,
      "имя": 6037,
      "клей": 6038,
      "описы": 6039,
      "окаты": 6040,
      "пл": 6041,
      "плы": 6042,
      "пью": 6043,
      "ссу": 6044,
      "сню": 6045,
      "считы": 6046,
      "уйти": 6047,
      "умно": 6048,
      "усили": 6049,
      "фраза": 6050,
      "хла": 6051,
      "чком": 6052,
      "эпо": 6053,
      "эстро": 6054,
      "нашем": 6055,
      "нен": 6056,
      "пона": 6057,
      "пожи": 6058,
      "потол": 6059,
      "поехал": 6060,
      "поставил": 6061,
      "робо": 6062,
      "коз": 6063,
      "ниж": 6064,
      "ничество": 6065,
      "лиф": 6066,
      "линей": 6067,
      "каз": 6068,
      "рент": 6069,
      "рекор": 6070,
      "республи": 6071,
      "вале": 6072,
      "теги": 6073,
      "темы": 6074,
      "зать": 6075,
      "заби": 6076,
      "заклю": 6077,
      "заработать": 6078,
      "загруз": 6079,
      "лево": 6080,
      "местно": 6081,
      "мото": 6082,
      "жением": 6083,
      "веще": 6084,
      "пром": 6085,
      "проч": 6086,
      "прогу": 6087,
      "масло": 6088,
      "тива": 6089,
      "тику": 6090,
      "дию": 6091,
      "выпи": 6092,
      "выстре": 6093,
      "кусо": 6094,
      "хомя": 6095,
      "лями": 6096,
      "частью": 6097,
      "прибо": 6098,
      "пришел": 6099,
      "придётся": 6100,
      "паке": 6101,
      "сахар": 6102,
      "изнасило": 6103,
      "пиа": 6104,
      "пиро": 6105,
      "пива": 6106,
      "душе": 6107,
      "разда": 6108,
      "разговор": 6109,
      "няется": 6110,
      "лую": 6111,
      "бас": 6112,
      "бата": 6113,
      "нией": 6114,
      "ньки": 6115,
      "живет": 6116,
      "жители": 6117,
      "жности": 6118,
      "целый": 6119,
      "мых": 6120,
      "Поч": 6121,
      "чности": 6122,
      "компенси": 6123,
      "инте": 6124,
      "институ": 6125,
      "пук": 6126,
      "переме": 6127,
      "перечисле": 6128,
      "вновь": 6129,
      "своя": 6130,
      "форт": 6131,
      "расчет": 6132,
      "первом": 6133,
      "сыпа": 6134,
      "мерно": 6135,
      "Некоторые": 6136,
      "Неужели": 6137,
      "Давай": 6138,
      "втором": 6139,
      "читай": 6140,
      "остались": 6141,
      "осталась": 6142,
      "щён": 6143,
      "шоу": 6144,
      "дорогие": 6145,
      "Коре": 6146,
      "зубы": 6147,
      "слад": 6148,
      "говорите": 6149,
      "стреми": 6150,
      "Такой": 6151,
      "Такое": 6152,
      "ловь": 6153,
      "стых": 6154,
      "нормальная": 6155,
      "лучшее": 6156,
      "тивные": 6157,
      "ждений": 6158,
      "полицию": 6159,
      "обычная": 6160,
      "пидоры": 6161,
      "формы": 6162,
      "фильтр": 6163,
      "жок": 6164,
      "последнего": 6165,
      "туалет": 6166,
      "1500": 6167,
      "хуесо": 6168,
      "нтами": 6169,
      "каждые": 6170,
      "связь": 6171,
      "КОМ": 6172,
      "Теле": 6173,
      "любое": 6174,
      "лезть": 6175,
      "пидораха": 6176,
      "варианты": 6177,
      "регионе": 6178,
      "Китая": 6179,
      "товара": 6180,
      "законно": 6181,
      "решить": 6182,
      "россии": 6183,
      "отвечает": 6184,
      "будущее": 6185,
      "готовить": 6186,
      "Было": 6187,
      "Была": 6188,
      "земле": 6189,
      "тических": 6190,
      "языке": 6191,
      "камера": 6192,
      "семью": 6193,
      "социально": 6194,
      "Разве": 6195,
      "животное": 6196,
      "ЛЬНО": 6197,
      "запись": 6198,
      "интереснее": 6199,
      "дворе": 6200,
      "внимательно": 6201,
      "спрос": 6202,
      "спустя": 6203,
      "попасть": 6204,
      "млрд": 6205,
      "ООО": 6206,
      "вспомина": 6207,
      "отдельный": 6208,
      "Хороший": 6209,
      "версии": 6210,
      "электричество": 6211,
      "зерка": 6212,
      "гарантии": 6213,
      "знакомый": 6214,
      "знакомых": 6215,
      "ощущение": 6216,
      "цвета": 6217,
      "употребля": 6218,
      "оружия": 6219,
      "максимально": 6220,
      "инструмент": 6221,
      "фейс": 6222,
      "элемента": 6223,
      "хлеб": 6224,
      "отношений": 6225,
      "ответственности": 6226,
      "бороться": 6227,
      "распростране": 6228,
      "семьи": 6229,
      "сообщает": 6230,
      "целиком": 6231,
      "эксперимента": 6232,
      "подробнее": 6233,
      "Обычно": 6234,
      "впечатление": 6235,
      "фашист": 6236,
      "интересует": 6237,
      "Казах": 6238,
      "виноваты": 6239,
      "Прям": 6240,
      "БЛЯДЬ": 6241,
      "гугл": 6242,
      "СПб": 6243,
      "статус": 6244,
      "градусов": 6245,
      "педофи": 6246,
      "перспекти": 6247,
      "медленно": 6248,
      "Ошибка": 6249,
      "англий": 6250,
      "игнори": 6251,
      "здравоохра": 6252,
      "Александр": 6253,
      "01": 6254,
      "05": 6255,
      "130": 6256,
      "Ph": 6257,
      "ad": 6258,
      "be": 6259,
      "boo": 6260,
      "ls": 6261,
      "oc": 6262,
      "per": 6263,
      "Ав": 6264,
      "Али": 6265,
      "Гру": 6266,
      "ДН": 6267,
      "ЗЫ": 6268,
      "Куда": 6269,
      "Ри": 6270,
      "СКА": 6271,
      "апре": 6272,
      "агент": 6273,
      "въ": 6274,
      "вста": 6275,
      "вшей": 6276,
      "вверх": 6277,
      "гнуть": 6278,
      "джа": 6279,
      "дная": 6280,
      "дным": 6281,
      "ел": 6282,
      "ищи": 6283,
      "кэ": 6284,
      "мё": 6285,
      "пко": 6286,
      "сдох": 6287,
      "тп": 6288,
      "увидеть": 6289,
      "эль": 6290,
      "ющую": 6291,
      "точку": 6292,
      "нообраз": 6293,
      "новым": 6294,
      "нав": 6295,
      "наша": 6296,
      "насту": 6297,
      "набира": 6298,
      "несли": 6299,
      "посо": 6300,
      "посмотри": 6301,
      "пошла": 6302,
      "помимо": 6303,
      "рака": 6304,
      "стры": 6305,
      "кос": 6306,
      "копе": 6307,
      "кости": 6308,
      "ковые": 6309,
      "нится": 6310,
      "рена": 6311,
      "реле": 6312,
      "гонять": 6313,
      "ваку": 6314,
      "ваша": 6315,
      "вашу": 6316,
      "дед": 6317,
      "дек": 6318,
      "делу": 6319,
      "тест": 6320,
      "тело": 6321,
      "даёт": 6322,
      "заш": 6323,
      "заслу": 6324,
      "загру": 6325,
      "рис": 6326,
      "лова": 6327,
      "ложить": 6328,
      "летов": 6329,
      "мести": 6330,
      "москов": 6331,
      "доп": 6332,
      "добы": 6333,
      "доля": 6334,
      "чена": 6335,
      "чены": 6336,
      "вечно": 6337,
      "ведет": 6338,
      "вечером": 6339,
      "простран": 6340,
      "мал": 6341,
      "мака": 6342,
      "матри": 6343,
      "тихо": 6344,
      "бои": 6345,
      "руси": 6346,
      "руются": 6347,
      "русоф": 6348,
      "дико": 6349,
      "выбрать": 6350,
      "выхода": 6351,
      "выигры": 6352,
      "выделя": 6353,
      "выходе": 6354,
      "лян": 6355,
      "старо": 6356,
      "стальги": 6357,
      "чивают": 6358,
      "прие": 6359,
      "прием": 6360,
      "прикры": 6361,
      "приходят": 6362,
      "привести": 6363,
      "обзо": 6364,
      "рым": 6365,
      "белых": 6366,
      "цик": 6367,
      "пира": 6368,
      "любая": 6369,
      "стика": 6370,
      "гиф": 6371,
      "целей": 6372,
      "мым": 6373,
      "подрост": 6374,
      "пустя": 6375,
      "переход": 6376,
      "работой": 6377,
      "трени": 6378,
      "дности": 6379,
      "верса": 6380,
      "гулять": 6381,
      "града": 6382,
      "зок": 6383,
      "хаха": 6384,
      "расши": 6385,
      "зию": 6386,
      "Нава": 6387,
      "менти": 6388,
      "долг": 6389,
      "простой": 6390,
      "полная": 6391,
      "втор": 6392,
      "второго": 6393,
      "чур": 6394,
      "чудо": 6395,
      "цах": 6396,
      "работало": 6397,
      "действует": 6398,
      "Модера": 6399,
      "стут": 6400,
      "езд": 6401,
      "ездил": 6402,
      "совка": 6403,
      "Продол": 6404,
      "стоять": 6405,
      "правилам": 6406,
      "зуб": 6407,
      "хорошее": 6408,
      "стоило": 6409,
      "тяну": 6410,
      "тянет": 6411,
      "вяз": 6412,
      "слабы": 6413,
      "пиздю": 6414,
      "смотрела": 6415,
      "водителя": 6416,
      "тивных": 6417,
      "альную": 6418,
      "Ранее": 6419,
      "ценник": 6420,
      "менили": 6421,
      "срал": 6422,
      "считал": 6423,
      "плевать": 6424,
      "Россий": 6425,
      "средняя": 6426,
      "2016": 6427,
      "Всем": 6428,
      "играли": 6429,
      "спать": 6430,
      "корре": 6431,
      "этапе": 6432,
      "питания": 6433,
      "наличие": 6434,
      "основной": 6435,
      "родствен": 6436,
      "канди": 6437,
      "высокие": 6438,
      "реальности": 6439,
      "стримы": 6440,
      "ставки": 6441,
      "ставлю": 6442,
      "Изви": 6443,
      "НИЕ": 6444,
      "товаров": 6445,
      "восстанови": 6446,
      "желательно": 6447,
      "показал": 6448,
      "курсы": 6449,
      "оплачивать": 6450,
      "защит": 6451,
      "глупо": 6452,
      "позволить": 6453,
      "потенци": 6454,
      "успешно": 6455,
      "дебилов": 6456,
      "глоба": 6457,
      "детьми": 6458,
      "ведения": 6459,
      "камеру": 6460,
      "предложить": 6461,
      "десят": 6462,
      "семье": 6463,
      "производителя": 6464,
      "оказался": 6465,
      "записы": 6466,
      "знакоми": 6467,
      "двоих": 6468,
      "пенсию": 6469,
      "выглядеть": 6470,
      "отопления": 6471,
      "позиции": 6472,
      "причины": 6473,
      "подписы": 6474,
      "пользуюсь": 6475,
      "попал": 6476,
      "появились": 6477,
      "контроли": 6478,
      "предлагают": 6479,
      "площадь": 6480,
      "смерть": 6481,
      "розет": 6482,
      "старых": 6483,
      "клиента": 6484,
      "британ": 6485,
      "Север": 6486,
      "дегенераты": 6487,
      "бумаги": 6488,
      "фигня": 6489,
      "изменить": 6490,
      "фикации": 6491,
      "контента": 6492,
      "употребление": 6493,
      "Одна": 6494,
      "каждому": 6495,
      "повторя": 6496,
      "оформле": 6497,
      "Смотри": 6498,
      "вшиеся": 6499,
      "Блядь": 6500,
      "мировой": 6501,
      "придумали": 6502,
      "ежедне": 6503,
      "аккумуля": 6504,
      "единственный": 6505,
      "схема": 6506,
      "удивительно": 6507,
      "инфраструк": 6508,
      "Правильно": 6509,
      "случилось": 6510,
      "степени": 6511,
      "наиболее": 6512,
      "азиат": 6513,
      "Получается": 6514,
      "Германии": 6515,
      "аэропор": 6516,
      "истери": 6517,
      "Федера": 6518,
      "отзывы": 6519,
      "санкции": 6520,
      "авгу": 6521,
      "упомя": 6522,
      "осущест": 6523,
      "Каждый": 6524,
      "!?": 6525,
      "-)": 6526,
      "44": 6527,
      "SS": 6528,
      "ex": 6529,
      "ht": 6530,
      "ne": 6531,
      "ox": 6532,
      "ps": 6533,
      "Бар": 6534,
      "Вт": 6535,
      "Вре": 6536,
      "ДНО": 6537,
      "КН": 6538,
      "Кра": 6539,
      "ОН": 6540,
      "Одно": 6541,
      "ПРА": 6542,
      "СБ": 6543,
      "Сла": 6544,
      "Соб": 6545,
      "Смы": 6546,
      "СМИ": 6547,
      "Тво": 6548,
      "Учиты": 6549,
      "ану": 6550,
      "аналог": 6551,
      "бл": 6552,
      "бэ": 6553,
      "вёл": 6554,
      "днем": 6555,
      "еда": 6556,
      "емого": 6557,
      "жке": 6558,
      "жкой": 6559,
      "иро": 6560,
      "ить": 6561,
      "мэ": 6562,
      "млад": 6563,
      "ом": 6564,
      "ово": 6565,
      "опро": 6566,
      "рэ": 6567,
      "справ": 6568,
      "уми": 6569,
      "указыва": 6570,
      "физ": 6571,
      "чнее": 6572,
      "шников": 6573,
      "ьем": 6574,
      "яться": 6575,
      "ябло": 6576,
      "тору": 6577,
      "носки": 6578,
      "нашёл": 6579,
      "нео": 6580,
      "нечто": 6581,
      "недоста": 6582,
      "побольше": 6583,
      "повод": 6584,
      "рада": 6585,
      "рабаты": 6586,
      "стю": 6587,
      "рода": 6588,
      "ковы": 6589,
      "нитель": 6590,
      "либертариан": 6591,
      "речи": 6592,
      "тье": 6593,
      "гое": 6594,
      "гори": 6595,
      "вающих": 6596,
      "важнее": 6597,
      "деры": 6598,
      "девя": 6599,
      "делки": 6600,
      "тата": 6601,
      "тела": 6602,
      "тения": 6603,
      "течении": 6604,
      "дан": 6605,
      "данного": 6606,
      "заво": 6607,
      "зала": 6608,
      "зару": 6609,
      "засу": 6610,
      "заебись": 6611,
      "меро": 6612,
      "моду": 6613,
      "доходы": 6614,
      "ченный": 6615,
      "сян": 6616,
      "прохо": 6617,
      "провода": 6618,
      "махи": 6619,
      "масса": 6620,
      "матема": 6621,
      "дива": 6622,
      "дила": 6623,
      "дизай": 6624,
      "мию": 6625,
      "вывать": 6626,
      "вышло": 6627,
      "выходить": 6628,
      "отца": 6629,
      "отключи": 6630,
      "пец": 6631,
      "чам": 6632,
      "сира": 6633,
      "сись": 6634,
      "числа": 6635,
      "привет": 6636,
      "пришла": 6637,
      "приори": 6638,
      "пане": 6639,
      "пале": 6640,
      "сал": 6641,
      "душу": 6642,
      "разор": 6643,
      "разному": 6644,
      "тури": 6645,
      "бами": 6646,
      "стира": 6647,
      "шинство": 6648,
      "прежде": 6649,
      "скиды": 6650,
      "бие": 6651,
      "бин": 6652,
      "акции": 6653,
      "Попро": 6654,
      "кер": 6655,
      "керами": 6656,
      "компе": 6657,
      "пут": 6658,
      "пересе": 6659,
      "плату": 6660,
      "детям": 6661,
      "хуем": 6662,
      "контора": 6663,
      "стратеги": 6664,
      "расследо": 6665,
      "ходило": 6666,
      "возле": 6667,
      "мнению": 6668,
      "крат": 6669,
      "полное": 6670,
      "всра": 6671,
      "чужо": 6672,
      "получения": 6673,
      "склю": 6674,
      "имено": 6675,
      "вляются": 6676,
      "самолёт": 6677,
      "оставля": 6678,
      "Закон": 6679,
      "циями": 6680,
      "совмест": 6681,
      "думали": 6682,
      "думаете": 6683,
      "стоял": 6684,
      "женных": 6685,
      "Какое": 6686,
      "шусь": 6687,
      "шутка": 6688,
      "торгу": 6689,
      "русской": 6690,
      "врач": 6691,
      "трубы": 6692,
      "считали": 6693,
      "100к": 6694,
      "банке": 6695,
      "50к": 6696,
      "твоего": 6697,
      "фильма": 6698,
      "получила": 6699,
      "2015": 6700,
      "игре": 6701,
      "смены": 6702,
      "смену": 6703,
      "головы": 6704,
      "корм": 6705,
      "корпу": 6706,
      "учился": 6707,
      "идеологи": 6708,
      "клиент": 6709,
      "покупал": 6710,
      "драй": 6711,
      "большим": 6712,
      "везти": 6713,
      "действие": 6714,
      "отличная": 6715,
      "серд": 6716,
      "любовь": 6717,
      "пидорашек": 6718,
      "лёг": 6719,
      "сюже": 6720,
      "квартир": 6721,
      "парк": 6722,
      "парня": 6723,
      "НИЯ": 6724,
      "наруше": 6725,
      "определить": 6726,
      "назвал": 6727,
      "статью": 6728,
      "отвечать": 6729,
      "курса": 6730,
      "оплаты": 6731,
      "защита": 6732,
      "образования": 6733,
      "ремонти": 6734,
      "землю": 6735,
      "практика": 6736,
      "красный": 6737,
      "учеб": 6738,
      "местных": 6739,
      "сумма": 6740,
      "текста": 6741,
      "Объ": 6742,
      "организация": 6743,
      "городах": 6744,
      "ошибка": 6745,
      "программа": 6746,
      "звук": 6747,
      "уведом": 6748,
      "ЛЬКО": 6749,
      "энерго": 6750,
      "группу": 6751,
      "способность": 6752,
      "продолжать": 6753,
      "народу": 6754,
      "ограничения": 6755,
      "спросить": 6756,
      "выглядят": 6757,
      "эффективно": 6758,
      "мужика": 6759,
      "пользуются": 6760,
      "обсуждения": 6761,
      "точнее": 6762,
      "трёх": 6763,
      "ционный": 6764,
      "ционные": 6765,
      "энергию": 6766,
      "ХОХ": 6767,
      "цифро": 6768,
      "смс": 6769,
      "версите": 6770,
      "ционной": 6771,
      "направление": 6772,
      "бабушка": 6773,
      "кладывать": 6774,
      "вспомнил": 6775,
      "представляю": 6776,
      "существование": 6777,
      "Смотря": 6778,
      "ХАХА": 6779,
      "буржу": 6780,
      "устройство": 6781,
      "сомневаюсь": 6782,
      "одинаково": 6783,
      "свиньи": 6784,
      "экран": 6785,
      "юриди": 6786,
      "объяснить": 6787,
      "вероятность": 6788,
      "алкоголя": 6789,
      "повышение": 6790,
      "стабильно": 6791,
      "рыночек": 6792,
      "Автор": 6793,
      "Серь": 6794,
      "удовольствие": 6795,
      "склады": 6796,
      "управления": 6797,
      "отдельная": 6798,
      "аварий": 6799,
      "фотки": 6800,
      "товарищ": 6801,
      "батареи": 6802,
      "зарабатывать": 6803,
      "поверхности": 6804,
      "декабре": 6805,
      "олигар": 6806,
      "бесполез": 6807,
      "Шарий": 6808,
      "убийство": 6809,
      "события": 6810,
      "отдыха": 6811,
      "парашю": 6812,
      "гигант": 6813,
      "молодые": 6814,
      "бессмысле": 6815,
      "хватало": 6816,
      "Достаточно": 6817,
      "зачастую": 6818,
      "сертифика": 6819,
      "вствуйте": 6820,
      "здравоохранения": 6821,
      "Учитывая": 6822,
      "!\",": 6823,
      "\"-": 6824,
      "2к": 6825,
      "39": 6826,
      "700": 6827,
      "Bl": 6828,
      "Gif": 6829,
      "St": 6830,
      "Win": 6831,
      "em": 6832,
      "im": 6833,
      "vi": 6834,
      "Анг": 6835,
      "Бри": 6836,
      "ВУ": 6837,
      "Вар": 6838,
      "Естественно": 6839,
      "ИЗ": 6840,
      "Ибо": 6841,
      "Ке": 6842,
      "Мер": 6843,
      "МТС": 6844,
      "НДС": 6845,
      "ОР": 6846,
      "Осно": 6847,
      "Обра": 6848,
      "СТИ": 6849,
      "ТЦ": 6850,
      "Шве": 6851,
      "ЩИ": 6852,
      "аре": 6853,
      "ада": 6854,
      "арма": 6855,
      "едут": 6856,
      "ебла": 6857,
      "жками": 6858,
      "ищ": 6859,
      "ист": 6860,
      "йка": 6861,
      "кв": 6862,
      "ода": 6863,
      "опыта": 6864,
      "пто": 6865,
      "пке": 6866,
      "сные": 6867,
      "сби": 6868,
      "справи": 6869,
      "снения": 6870,
      "тс": 6871,
      "уму": 6872,
      "уши": 6873,
      "умне": 6874,
      "уника": 6875,
      "фло": 6876,
      "хнуть": 6877,
      "чник": 6878,
      "шт": 6879,
      "шные": 6880,
      "товой": 6881,
      "нон": 6882,
      "ногами": 6883,
      "нажи": 6884,
      "набор": 6885,
      "нении": 6886,
      "непоня": 6887,
      "неуда": 6888,
      "неудоб": 6889,
      "недостаточно": 6890,
      "поми": 6891,
      "порой": 6892,
      "построи": 6893,
      "почитать": 6894,
      "рашки": 6895,
      "роман": 6896,
      "нину": 6897,
      "нился": 6898,
      "личный": 6899,
      "кало": 6900,
      "кают": 6901,
      "каешь": 6902,
      "реже": 6903,
      "валя": 6904,
      "ватели": 6905,
      "дете": 6906,
      "деду": 6907,
      "таль": 6908,
      "тации": 6909,
      "вости": 6910,
      "теров": 6911,
      "тент": 6912,
      "зах": 6913,
      "зами": 6914,
      "заку": 6915,
      "закупа": 6916,
      "запуска": 6917,
      "заплатить": 6918,
      "мера": 6919,
      "лаге": 6920,
      "моди": 6921,
      "моста": 6922,
      "модер": 6923,
      "мотор": 6924,
      "доно": 6925,
      "допуска": 6926,
      "домов": 6927,
      "чест": 6928,
      "чере": 6929,
      "черт": 6930,
      "кибер": 6931,
      "мак": 6932,
      "мато": 6933,
      "масте": 6934,
      "типу": 6935,
      "тием": 6936,
      "бог": 6937,
      "боли": 6938,
      "больно": 6939,
      "боюсь": 6940,
      "сот": 6941,
      "сово": 6942,
      "созна": 6943,
      "сопроти": 6944,
      "виков": 6945,
      "видят": 6946,
      "диск": 6947,
      "выя": 6948,
      "выходят": 6949,
      "выводы": 6950,
      "отключа": 6951,
      "хота": 6952,
      "ходом": 6953,
      "чаю": 6954,
      "муда": 6955,
      "стоили": 6956,
      "прину": 6957,
      "придумал": 6958,
      "принять": 6959,
      "причём": 6960,
      "привяза": 6961,
      "паца": 6962,
      "сади": 6963,
      "обзор": 6964,
      "тыр": 6965,
      "пирами": 6966,
      "дум": 6967,
      "нял": 6968,
      "базо": 6969,
      "базе": 6970,
      "гала": 6971,
      "жид": 6972,
      "жность": 6973,
      "цени": 6974,
      "суток": 6975,
      "скидку": 6976,
      "билеты": 6977,
      "жаю": 6978,
      "жалу": 6979,
      "котов": 6980,
      "перено": 6981,
      "вности": 6982,
      "верто": 6983,
      "фирма": 6984,
      "шам": 6985,
      "шах": 6986,
      "больницу": 6987,
      "фонов": 6988,
      "конвер": 6989,
      "хах": 6990,
      "...\",": 6991,
      "первая": 6992,
      "Нам": 6993,
      "ственным": 6994,
      "Нор": 6995,
      "геры": 6996,
      "вторая": 6997,
      "ссию": 6998,
      "строят": 6999,
      "тербур": 7000,
      "Заба": 7001,
      "войну": 7002,
      "езде": 7003,
      "клас": 7004,
      "крым": 7005,
      "думает": 7006,
      "спец": 7007,
      "стояли": 7008,
      "жусь": 7009,
      "дорогих": 7010,
      "правительство": 7011,
      "Кар": 7012,
      "хороших": 7013,
      "ебаные": 7014,
      "тяж": 7015,
      "тятся": 7016,
      "Прико": 7017,
      "Привет": 7018,
      "городов": 7019,
      "Таких": 7020,
      "стые": 7021,
      "логии": 7022,
      "логично": 7023,
      "нормальную": 7024,
      "исче": 7025,
      "торгов": 7026,
      "врачи": 7027,
      "проблему": 7028,
      "ждении": 7029,
      "каждую": 7030,
      "банкро": 7031,
      "обычных": 7032,
      "Соловь": 7033,
      "понимают": 7034,
      "фильме": 7035,
      "среднего": 7036,
      "2013": 7037,
      "фактически": 7038,
      "спаса": 7039,
      "здания": 7040,
      "звонки": 7041,
      "вшим": 7042,
      "нахер": 7043,
      "Сама": 7044,
      "черно": 7045,
      "действий": 7046,
      "Венесу": 7047,
      "надца": 7048,
      "отличаются": 7049,
      "едини": 7050,
      "окно": 7051,
      "октя": 7052,
      "молодец": 7053,
      "дешево": 7054,
      "пидорахи": 7055,
      "пидорашки": 7056,
      "границу": 7057,
      "реклам": 7058,
      "занимается": 7059,
      "толку": 7060,
      "названия": 7061,
      "производстве": 7062,
      "каналы": 7063,
      "запрет": 7064,
      "Перед": 7065,
      "тарифы": 7066,
      "ТАМ": 7067,
      "пользовался": 7068,
      "готови": 7069,
      "интересное": 7070,
      "ссылки": 7071,
      "свобода": 7072,
      "оплатить": 7073,
      "графии": 7074,
      "условии": 7075,
      "убивают": 7076,
      "район": 7077,
      "продуктов": 7078,
      "Суть": 7079,
      "любитель": 7080,
      "печально": 7081,
      "ющиеся": 7082,
      "универса": 7083,
      "университе": 7084,
      "книгу": 7085,
      "яндекс": 7086,
      "улицу": 7087,
      "ведение": 7088,
      "словами": 7089,
      "заказыва": 7090,
      "Общее": 7091,
      "сроки": 7092,
      "страховка": 7093,
      "ТСЯ": 7094,
      "ошиб": 7095,
      "КИЙ": 7096,
      "запад": 7097,
      "оказалась": 7098,
      "записи": 7099,
      "шлюхи": 7100,
      "документа": 7101,
      "девушек": 7102,
      "продукции": 7103,
      "позд": 7104,
      "сайты": 7105,
      "подпис": 7106,
      "российских": 7107,
      "появилась": 7108,
      "снимают": 7109,
      "айфон": 7110,
      "сотрудники": 7111,
      "анон": 7112,
      "площади": 7113,
      "процента": 7114,
      "ютуб": 7115,
      "постинга": 7116,
      "понравилась": 7117,
      "режиме": 7118,
      "украинцев": 7119,
      "ВЕР": 7120,
      "влиять": 7121,
      "требуют": 7122,
      "огромный": 7123,
      "сообщение": 7124,
      "деятельность": 7125,
      "знакомые": 7126,
      "вспомнить": 7127,
      "отправили": 7128,
      "отправить": 7129,
      "хлеба": 7130,
      "порядка": 7131,
      "регионах": 7132,
      "команди": 7133,
      "отдавать": 7134,
      "девочка": 7135,
      "соединения": 7136,
      "любви": 7137,
      "маршрут": 7138,
      "ядерного": 7139,
      "подъезда": 7140,
      "рейтин": 7141,
      "тюрь": 7142,
      "рассматривать": 7143,
      "лететь": 7144,
      "фирмы": 7145,
      "поддержку": 7146,
      "Большинство": 7147,
      "картинке": 7148,
      "финанси": 7149,
      "лежат": 7150,
      "жилье": 7151,
      "Израиль": 7152,
      "аварии": 7153,
      "куколд": 7154,
      "трамвай": 7155,
      "ёзно": 7156,
      "сигнал": 7157,
      "терпеть": 7158,
      "Алсо": 7159,
      "уволь": 7160,
      "запрещено": 7161,
      "кровь": 7162,
      "твоему": 7163,
      "секунды": 7164,
      "прокура": 7165,
      "проституток": 7166,
      "абоне": 7167,
      "множество": 7168,
      "ущерб": 7169,
      "самостоятельно": 7170,
      "Вспом": 7171,
      "сахара": 7172,
      "Почти": 7173,
      "мероприя": 7174,
      "Gifx": 7175,
      "110": 7176,
      "38": 7177,
      "54": 7178,
      "57": 7179,
      "5к": 7180,
      "66": 7181,
      "75": 7182,
      "ir": 7183,
      "po": 7184,
      "АН": 7185,
      "Ах": 7186,
      "ВД": 7187,
      "ВВП": 7188,
      "Ги": 7189,
      "Дет": 7190,
      "ДРУ": 7191,
      "Ев": 7192,
      "ЙТЕ": 7193,
      "Кла": 7194,
      "Мэ": 7195,
      "Ор": 7196,
      "Пя": 7197,
      "РП": 7198,
      "Сего": 7199,
      "Сбер": 7200,
      "Трам": 7201,
      "Фо": 7202,
      "Фото": 7203,
      "Чего": 7204,
      "Шта": 7205,
      "але": 7206,
      "вру": 7207,
      "вперед": 7208,
      "вплоть": 7209,
      "гности": 7210,
      "двер": 7211,
      "емо": 7212,
      "емая": 7213,
      "йс": 7214,
      "кве": 7215,
      "нков": 7216,
      "опо": 7217,
      "оме": 7218,
      "освобо": 7219,
      "пка": 7220,
      "сный": 7221,
      "счасть": 7222,
      "уско": 7223,
      "улуч": 7224,
      "ушла": 7225,
      "уклад": 7226,
      "фли": 7227,
      "хэ": 7228,
      "чне": 7229,
      "чники": 7230,
      "ых": 7231,
      "товать": 7232,
      "нове": 7233,
      "нац": 7234,
      "насили": 7235,
      "находятся": 7236,
      "некоторое": 7237,
      "несмотря": 7238,
      "позо": 7239,
      "подели": 7240,
      "потери": 7241,
      "поиграть": 7242,
      "посмотрите": 7243,
      "раство": 7244,
      "равятся": 7245,
      "рога": 7246,
      "ковать": 7247,
      "кожа": 7248,
      "ковый": 7249,
      "колов": 7250,
      "листы": 7251,
      "личные": 7252,
      "литера": 7253,
      "кабе": 7254,
      "каждая": 7255,
      "годов": 7256,
      "дефе": 7257,
      "восемь": 7258,
      "льго": 7259,
      "давали": 7260,
      "зашел": 7261,
      "задержа": 7262,
      "закуп": 7263,
      "заслужи": 7264,
      "зарегистри": 7265,
      "рик": 7266,
      "риф": 7267,
      "ришь": 7268,
      "ламина": 7269,
      "моча": 7270,
      "моска": 7271,
      "доче": 7272,
      "жене": 7273,
      "жечь": 7274,
      "ведом": 7275,
      "вебм": 7276,
      "проб": 7277,
      "проле": 7278,
      "промы": 7279,
      "проходит": 7280,
      "провай": 7281,
      "проходить": 7282,
      "мамы": 7283,
      "масла": 7284,
      "село": 7285,
      "сестра": 7286,
      "тира": 7287,
      "тивно": 7288,
      "соль": 7289,
      "сообраз": 7290,
      "видать": 7291,
      "рука": 7292,
      "дие": 7293,
      "выр": 7294,
      "выво": 7295,
      "выле": 7296,
      "выну": 7297,
      "выполне": 7298,
      "вызывает": 7299,
      "высказыва": 7300,
      "отъ": 7301,
      "отдел": 7302,
      "пел": 7303,
      "песня": 7304,
      "пенопла": 7305,
      "хождение": 7306,
      "сталки": 7307,
      "сижу": 7308,
      "сидели": 7309,
      "читься": 7310,
      "мудак": 7311,
      "шесть": 7312,
      "прин": 7313,
      "прибе": 7314,
      "пригла": 7315,
      "приносит": 7316,
      "пау": 7317,
      "обмен": 7318,
      "тыщ": 7319,
      "няли": 7320,
      "турой": 7321,
      "тупая": 7322,
      "бугу": 7323,
      "бат": 7324,
      "бага": 7325,
      "бабло": 7326,
      "газа": 7327,
      "жиды": 7328,
      "скот": 7329,
      "ското": 7330,
      "скоязы": 7331,
      "суды": 7332,
      "подсвет": 7333,
      "Покупа": 7334,
      "жая": 7335,
      "комми": 7336,
      "инструк": 7337,
      "скажи": 7338,
      "скажет": 7339,
      "перево": 7340,
      "передо": 7341,
      "платы": 7342,
      "следить": 7343,
      "верю": 7344,
      "детства": 7345,
      "хуле": 7346,
      "делаешь": 7347,
      "большую": 7348,
      "фоны": 7349,
      "конди": 7350,
      "гради": 7351,
      "хал": 7352,
      "распи": 7353,
      "рассро": 7354,
      "Напом": 7355,
      "Наверное": 7356,
      "менте": 7357,
      "мерт": 7358,
      "ходишь": 7359,
      "Недавно": 7360,
      "сное": 7361,
      "влением": 7362,
      "пыня": 7363,
      "имея": 7364,
      "остается": 7365,
      "Моя": 7366,
      "этими": 7367,
      "ровала": 7368,
      "надое": 7369,
      "многое": 7370,
      "брат": 7371,
      "думают": 7372,
      "тролли": 7373,
      "начало": 7374,
      "начальник": 7375,
      "дорог": 7376,
      "Кол": 7377,
      "карт": 7378,
      "кремле": 7379,
      "хорош": 7380,
      "лучшие": 7381,
      "тянуть": 7382,
      "грубо": 7383,
      "круче": 7384,
      "цыган": 7385,
      "стрелять": 7386,
      "альное": 7387,
      "обосса": 7388,
      "пизды": 7389,
      "пиздить": 7390,
      "логика": 7391,
      "военных": 7392,
      "трудом": 7393,
      "срав": 7394,
      "почту": 7395,
      "получал": 7396,
      "пидорас": 7397,
      "машинах": 7398,
      "достать": 7399,
      "фильт": 7400,
      "вопроса": 7401,
      "последних": 7402,
      "последнем": 7403,
      "положение": 7404,
      "внешно": 7405,
      "свети": 7406,
      "Сами": 7407,
      "Самая": 7408,
      "Маэстро": 7409,
      "колба": 7410,
      "открыл": 7411,
      "каждым": 7412,
      "взят": 7413,
      "частности": 7414,
      "нормальное": 7415,
      "высоты": 7416,
      "Дети": 7417,
      "ющем": 7418,
      "умеют": 7419,
      "молодо": 7420,
      "40к": 7421,
      "НОЙ": 7422,
      "похож": 7423,
      "процесса": 7424,
      "экономике": 7425,
      "нормы": 7426,
      "регион": 7427,
      "Киев": 7428,
      "занимался": 7429,
      "оператор": 7430,
      "каналов": 7431,
      "запрещён": 7432,
      "транзи": 7433,
      "желании": 7434,
      "полноце": 7435,
      "ответил": 7436,
      "часток": 7437,
      "ТАК": 7438,
      "работников": 7439,
      "солнца": 7440,
      "частично": 7441,
      "оплачи": 7442,
      "всюду": 7443,
      "земли": 7444,
      "тический": 7445,
      "практике": 7446,
      "коммуника": 7447,
      "коммунизм": 7448,
      "книга": 7449,
      "использую": 7450,
      "суммы": 7451,
      "языка": 7452,
      "диагности": 7453,
      "десяток": 7454,
      "семья": 7455,
      "срочно": 7456,
      "искал": 7457,
      "маленькая": 7458,
      "животные": 7459,
      "чувства": 7460,
      "группе": 7461,
      "продолжение": 7462,
      "Украина": 7463,
      "резал": 7464,
      "документов": 7465,
      "культуры": 7466,
      "лахто": 7467,
      "двигателя": 7468,
      "причин": 7469,
      "!!!!!!": 7470,
      "контроль": 7471,
      "адекватные": 7472,
      "технологий": 7473,
      "аноним": 7474,
      "хрене": 7475,
      "хрень": 7476,
      "штук": 7477,
      "помещение": 7478,
      "картинка": 7479,
      "мелкий": 7480,
      "вакци": 7481,
      "комментарии": 7482,
      "глазах": 7483,
      "видосы": 7484,
      "Первая": 7485,
      "пользователя": 7486,
      "маркетинг": 7487,
      "охрани": 7488,
      "огромное": 7489,
      "провока": 7490,
      "подтверждение": 7491,
      "обеспечить": 7492,
      "ent": 7493,
      "повтор": 7494,
      "ииии": 7495,
      "крупных": 7496,
      "Остальное": 7497,
      "Маргина": 7498,
      "отношении": 7499,
      "свинья": 7500,
      "конкурентов": 7501,
      "Чувак": 7502,
      "аренда": 7503,
      "выросла": 7504,
      "потратить": 7505,
      "еврей": 7506,
      "джин": 7507,
      "кухне": 7508,
      "центр": 7509,
      "герои": 7510,
      "картинку": 7511,
      "оценки": 7512,
      "школьников": 7513,
      "окружа": 7514,
      "сигареты": 7515,
      "Владимир": 7516,
      "ипотеку": 7517,
      "причинам": 7518,
      "падение": 7519,
      "разобраться": 7520,
      "грн": 7521,
      "прогресс": 7522,
      "начиная": 7523,
      "устраивает": 7524,
      "бесконечно": 7525,
      "утром": 7526,
      "эконом": 7527,
      "Понятно": 7528,
      "холодиль": 7529,
      "ошибаюсь": 7530,
      "января": 7531,
      "глубоко": 7532,
      "становятся": 7533,
      "оптими": 7534,
      "Деньги": 7535,
      "Человек": 7536,
      "Постинг": 7537,
      "Здравствуйте": 7538,
      "Модератор": 7539,
      "Сегодня": 7540,
      "!,": 7541,
      ")?": 7542,
      "52": 7543,
      "67": 7544,
      "89": 7545,
      "97": 7546,
      "Ne": 7547,
      "ag": 7548,
      "ob": 7549,
      "ov": 7550,
      "ur": 7551,
      "Абу": 7552,
      "Вон": 7553,
      "ГБ": 7554,
      "ДР": 7555,
      "Джа": 7556,
      "Дей": 7557,
      "ЗП": 7558,
      "Зе": 7559,
      "Зво": 7560,
      "КЕ": 7561,
      "Кли": 7562,
      "Кри": 7563,
      "МНЕ": 7564,
      "Муж": 7565,
      "Нем": 7566,
      "ОК": 7567,
      "Обе": 7568,
      "Охуе": 7569,
      "Оказалось": 7570,
      "ПЫ": 7571,
      "Сви": 7572,
      "Сред": 7573,
      "СТЬ": 7574,
      "УУ": 7575,
      "ХИ": 7576,
      "ЧС": 7577,
      "ЧЕС": 7578,
      "Элек": 7579,
      "ам": 7580,
      "ара": 7581,
      "атра": 7582,
      "вке": 7583,
      "всту": 7584,
      "вшее": 7585,
      "ед": 7586,
      "ец": 7587,
      "ивать": 7588,
      "кнул": 7589,
      "мгно": 7590,
      "нче": 7591,
      "оре": 7592,
      "окажется": 7593,
      "рги": 7594,
      "рхи": 7595,
      "сру": 7596,
      "смен": 7597,
      "сним": 7598,
      "трю": 7599,
      "уга": 7600,
      "успо": 7601,
      "уеба": 7602,
      "участок": 7603,
      "фем": 7604,
      "христи": 7605,
      "эм": 7606,
      "точка": 7607,
      "ноя": 7608,
      "ночи": 7609,
      "ногу": 7610,
      "новление": 7611,
      "ногие": 7612,
      "ностальги": 7613,
      "наве": 7614,
      "нация": 7615,
      "науч": 7616,
      "называть": 7617,
      "намере": 7618,
      "нафиг": 7619,
      "недав": 7620,
      "неприятно": 7621,
      "непосред": 7622,
      "поко": 7623,
      "пова": 7624,
      "подар": 7625,
      "подой": 7626,
      "поставили": 7627,
      "рачи": 7628,
      "раке": 7629,
      "стные": 7630,
      "рос": 7631,
      "родной": 7632,
      "коп": 7633,
      "кожи": 7634,
      "ковой": 7635,
      "кошка": 7636,
      "ливать": 7637,
      "линию": 7638,
      "лицу": 7639,
      "кавказ": 7640,
      "вано": 7641,
      "вакан": 7642,
      "делом": 7643,
      "таб": 7644,
      "вовремя": 7645,
      "даче": 7646,
      "дабы": 7647,
      "дайте": 7648,
      "зама": 7649,
      "задума": 7650,
      "законе": 7651,
      "заявля": 7652,
      "захочет": 7653,
      "риски": 7654,
      "лера": 7655,
      "месту": 7656,
      "лабора": 7657,
      "нынче": 7658,
      "мода": 7659,
      "моче": 7660,
      "моск": 7661,
      "жесто": 7662,
      "жесть": 7663,
      "жению": 7664,
      "чел": 7665,
      "чета": 7666,
      "ченных": 7667,
      "кинул": 7668,
      "веру": 7669,
      "верят": 7670,
      "прось": 7671,
      "прочего": 7672,
      "проявля": 7673,
      "проходят": 7674,
      "просили": 7675,
      "просят": 7676,
      "массы": 7677,
      "сет": 7678,
      "тист": 7679,
      "сорти": 7680,
      "вик": 7681,
      "вите": 7682,
      "видов": 7683,
      "рукой": 7684,
      "дится": 7685,
      "выпу": 7686,
      "выбра": 7687,
      "отклю": 7688,
      "курт": 7689,
      "курить": 7690,
      "чали": 7691,
      "стам": 7692,
      "стану": 7693,
      "сии": 7694,
      "сите": 7695,
      "сики": 7696,
      "сидел": 7697,
      "чими": 7698,
      "чится": 7699,
      "чишь": 7700,
      "мужа": 7701,
      "столь": 7702,
      "прино": 7703,
      "приве": 7704,
      "применя": 7705,
      "придержи": 7706,
      "пришёл": 7707,
      "природе": 7708,
      "нуться": 7709,
      "паци": 7710,
      "сала": 7711,
      "обло": 7712,
      "рыбу": 7713,
      "белого": 7714,
      "духо": 7715,
      "разное": 7716,
      "разными": 7717,
      "разнообраз": 7718,
      "щему": 7719,
      "база": 7720,
      "гит": 7721,
      "гия": 7722,
      "шите": 7723,
      "сугу": 7724,
      "предел": 7725,
      "поды": 7726,
      "подво": 7727,
      "подключа": 7728,
      "подразделе": 7729,
      "акт": 7730,
      "ряю": 7731,
      "Посмотрите": 7732,
      "инста": 7733,
      "сканда": 7734,
      "щина": 7735,
      "знаний": 7736,
      "перепла": 7737,
      "перевести": 7738,
      "рабочий": 7739,
      "трек": 7740,
      "дность": 7741,
      "хую": 7742,
      "стекает": 7743,
      "спорти": 7744,
      "фол": 7745,
      "констру": 7746,
      "гран": 7747,
      "менял": 7748,
      "хан": 7749,
      "странами": 7750,
      "...,": 7751,
      "рассла": 7752,
      "перё": 7753,
      "зим": 7754,
      "Насчет": 7755,
      "трав": 7756,
      "вреда": 7757,
      "слой": 7758,
      "гений": 7759,
      "Нельзя": 7760,
      "мнения": 7761,
      "Дальше": 7762,
      "Далее": 7763,
      "вторую": 7764,
      "очеред": 7765,
      "цар": 7766,
      "царь": 7767,
      "строя": 7768,
      "трипко": 7769,
      "имени": 7770,
      "читаю": 7771,
      "насрать": 7772,
      "2020": 7773,
      "предвари": 7774,
      "предмет": 7775,
      "самолет": 7776,
      "женные": 7777,
      "жую": 7778,
      "ствительно": 7779,
      "ебала": 7780,
      "ебался": 7781,
      "тянут": 7782,
      "шут": 7783,
      "ждаю": 7784,
      "слать": 7785,
      "показывать": 7786,
      "исходя": 7787,
      "лучшем": 7788,
      "русни": 7789,
      "русском": 7790,
      "ставила": 7791,
      "рьер": 7792,
      "продаж": 7793,
      "Сою": 7794,
      "Совет": 7795,
      "ТОЛЬКО": 7796,
      "понимает": 7797,
      "получился": 7798,
      "жопа": 7799,
      "НАХУЙ": 7800,
      "негров": 7801,
      "играют": 7802,
      "головой": 7803,
      "кормить": 7804,
      "Никола": 7805,
      "свете": 7806,
      "сделано": 7807,
      "школа": 7808,
      "Откры": 7809,
      "удалили": 7810,
      "хуесос": 7811,
      "Вероят": 7812,
      "отличный": 7813,
      "помочь": 7814,
      "колхоз": 7815,
      "самих": 7816,
      "частный": 7817,
      "частной": 7818,
      "высоте": 7819,
      "оккупа": 7820,
      "уметь": 7821,
      "молоко": 7822,
      "блок": 7823,
      "лезет": 7824,
      "Бол": 7825,
      "свиней": 7826,
      "накопи": 7827,
      "штаны": 7828,
      "хера": 7829,
      "проведе": 7830,
      "тонн": 7831,
      "квартира": 7832,
      "бросить": 7833,
      "названием": 7834,
      "искрен": 7835,
      "ющихся": 7836,
      "производству": 7837,
      "Реально": 7838,
      "Петербур": 7839,
      "личное": 7840,
      "городской": 7841,
      "держится": 7842,
      "идио": 7843,
      "идите": 7844,
      "лампо": 7845,
      "зарплате": 7846,
      "печата": 7847,
      "90х": 7848,
      "красно": 7849,
      "Честно": 7850,
      "учесть": 7851,
      "Москву": 7852,
      "5000": 7853,
      "местные": 7854,
      "умные": 7855,
      "диагно": 7856,
      "3000": 7857,
      "граждане": 7858,
      "капитализм": 7859,
      "страховки": 7860,
      "клоу": 7861,
      "ошибки": 7862,
      "КИЕ": 7863,
      "пруф": 7864,
      "наука": 7865,
      "договору": 7866,
      "информация": 7867,
      "ственную": 7868,
      "спорта": 7869,
      "пенсио": 7870,
      "концеп": 7871,
      "ограничение": 7872,
      "спросил": 7873,
      "красивая": 7874,
      "Украину": 7875,
      "двигатель": 7876,
      "мужики": 7877,
      "Ленин": 7878,
      "сайта": 7879,
      "летают": 7880,
      "езжают": 7881,
      "заявления": 7882,
      "увеличить": 7883,
      "сотрудников": 7884,
      "долбоёб": 7885,
      "площадки": 7886,
      "требовать": 7887,
      "мелких": 7888,
      "волну": 7889,
      "комментах": 7890,
      "комментария": 7891,
      "возврат": 7892,
      "ционных": 7893,
      "антибио": 7894,
      "глазами": 7895,
      "посадо": 7896,
      "технику": 7897,
      "ресурс": 7898,
      "ресурсов": 7899,
      "обучения": 7900,
      "обучение": 7901,
      "требуется": 7902,
      "территорию": 7903,
      "здоровьем": 7904,
      "яяяя": 7905,
      "размера": 7906,
      "выходные": 7907,
      "тупых": 7908,
      "демокра": 7909,
      "ступление": 7910,
      "персонал": 7911,
      "метод": 7912,
      "Двачую": 7913,
      "огонь": 7914,
      "содержание": 7915,
      "ебанутые": 7916,
      "вероятно": 7917,
      "автобусе": 7918,
      "алкоголь": 7919,
      "обслуживание": 7920,
      "проверять": 7921,
      "нагрузка": 7922,
      "уважа": 7923,
      "контрак": 7924,
      "финансо": 7925,
      "изменения": 7926,
      "кабинет": 7927,
      "память": 7928,
      "поднимать": 7929,
      "составляет": 7930,
      "домофон": 7931,
      "заявил": 7932,
      "любые": 7933,
      "ребёнка": 7934,
      "ублюд": 7935,
      "поведение": 7936,
      "живем": 7937,
      "схему": 7938,
      "наказание": 7939,
      "развлека": 7940,
      "количестве": 7941,
      "некдо": 7942,
      "попытку": 7943,
      "Росстат": 7944,
      "горизон": 7945,
      "вынужде": 7946,
      "34": 7947,
      "42": 7948,
      "450": 7949,
      "AS": 7950,
      "IT": 7951,
      "ail": 7952,
      "eg": 7953,
      "ut": 7954,
      "Аб": 7955,
      "Вз": 7956,
      "Ван": 7957,
      "Дер": 7958,
      "Ему": 7959,
      "ЖД": 7960,
      "ИМ": 7961,
      "Игра": 7962,
      "Лет": 7963,
      "Оно": 7964,
      "Пло": 7965,
      "Пот": 7966,
      "ПРЕ": 7967,
      "ПДД": 7968,
      "СЫ": 7969,
      "Сме": 7970,
      "Све": 7971,
      "Сса": 7972,
      "Сан": 7973,
      "СКО": 7974,
      "Среди": 7975,
      "Тя": 7976,
      "Три": 7977,
      "ТВО": 7978,
      "Уда": 7979,
      "Хи": 7980,
      "ЦЕ": 7981,
      "брь": 7982,
      "есте": 7983,
      "кo": 7984,
      "нце": 7985,
      "нского": 7986,
      "нравятся": 7987,
      "оз": 7988,
      "ол": 7989,
      "овер": 7990,
      "осили": 7991,
      "опубли": 7992,
      "опуще": 7993,
      "пд": 7994,
      "сжи": 7995,
      "сных": 7996,
      "тв": 7997,
      "уб": 7998,
      "уха": 7999,
      "фле": 8000,
      "хво": 8001,
      "чше": 8002,
      "чках": 8003,
      "эл": 8004,
      "этни": 8005,
      "торо": 8006,
      "тота": 8007,
      "нат": 8008,
      "напа": 8009,
      "настрой": 8010,
      "непре": 8011,
      "неодно": 8012,
      "несут": 8013,
      "неприят": 8014,
      "пого": 8015,
      "повсе": 8016,
      "полет": 8017,
      "потер": 8018,
      "поправ": 8019,
      "появля": 8020,
      "пошёл": 8021,
      "появляется": 8022,
      "коше": 8023,
      "ковую": 8024,
      "костю": 8025,
      "ниться": 8026,
      "лия": 8027,
      "лино": 8028,
      "лики": 8029,
      "личная": 8030,
      "лизации": 8031,
      "тья": 8032,
      "дента": 8033,
      "девай": 8034,
      "декса": 8035,
      "таба": 8036,
      "такому": 8037,
      "воору": 8038,
      "лья": 8039,
      "льна": 8040,
      "тег": 8041,
      "тези": 8042,
      "дается": 8043,
      "зан": 8044,
      "зади": 8045,
      "заводы": 8046,
      "заебал": 8047,
      "задумы": 8048,
      "рила": 8049,
      "лоп": 8050,
      "лох": 8051,
      "лоша": 8052,
      "лето": 8053,
      "летия": 8054,
      "мети": 8055,
      "меров": 8056,
      "моги": 8057,
      "моменты": 8058,
      "доне": 8059,
      "доходов": 8060,
      "допустим": 8061,
      "честь": 8062,
      "кида": 8063,
      "кинули": 8064,
      "веро": 8065,
      "прошу": 8066,
      "проигры": 8067,
      "провин": 8068,
      "прочим": 8069,
      "маты": 8070,
      "сетя": 8071,
      "сетей": 8072,
      "серий": 8073,
      "боре": 8074,
      "богу": 8075,
      "сой": 8076,
      "соста": 8077,
      "состав": 8078,
      "вир": 8079,
      "вика": 8080,
      "визу": 8081,
      "диви": 8082,
      "мите": 8083,
      "выделе": 8084,
      "отры": 8085,
      "ету": 8086,
      "куля": 8087,
      "пече": 8088,
      "пешком": 8089,
      "хоб": 8090,
      "ляю": 8091,
      "чала": 8092,
      "стари": 8093,
      "стадо": 8094,
      "чия": 8095,
      "чину": 8096,
      "числи": 8097,
      "чиками": 8098,
      "мусуль": 8099,
      "приста": 8100,
      "приём": 8101,
      "придумы": 8102,
      "нужды": 8103,
      "нужный": 8104,
      "папа": 8105,
      "санти": 8106,
      "извра": 8107,
      "изуча": 8108,
      "циони": 8109,
      "писто": 8110,
      "разби": 8111,
      "размере": 8112,
      "няться": 8113,
      "няюсь": 8114,
      "буйте": 8115,
      "бабы": 8116,
      "бары": 8117,
      "барина": 8118,
      "люк": 8119,
      "люми": 8120,
      "гавно": 8121,
      "стиле": 8122,
      "стическая": 8123,
      "льность": 8124,
      "гиб": 8125,
      "гий": 8126,
      "шин": 8127,
      "ниям": 8128,
      "сухо": 8129,
      "супру": 8130,
      "преж": 8131,
      "превос": 8132,
      "бия": 8133,
      "подскажите": 8134,
      "Пожа": 8135,
      "жаются": 8136,
      "инве": 8137,
      "инсти": 8138,
      "инвести": 8139,
      "скать": 8140,
      "скажут": 8141,
      "пусто": 8142,
      "знала": 8143,
      "перекре": 8144,
      "перестал": 8145,
      "переделы": 8146,
      "рабочего": 8147,
      "вут": 8148,
      "худо": 8149,
      "больных": 8150,
      "стен": 8151,
      "фовать": 8152,
      "концов": 8153,
      "зоо": 8154,
      "халя": 8155,
      "расписа": 8156,
      "расход": 8157,
      "рассчиты": 8158,
      "кторы": 8159,
      "зий": 8160,
      "общения": 8161,
      "смогу": 8162,
      "гено": 8163,
      "возбу": 8164,
      "говой": 8165,
      "краса": 8166,
      "кратно": 8167,
      "полную": 8168,
      "влен": 8169,
      "получше": 8170,
      "скло": 8171,
      "пыль": 8172,
      "имеется": 8173,
      "предъ": 8174,
      "предпочте": 8175,
      "самолё": 8176,
      "самолеты": 8177,
      "оставил": 8178,
      "остальном": 8179,
      "Заме": 8180,
      "казах": 8181,
      "езжать": 8182,
      "главный": 8183,
      "циях": 8184,
      "всём": 8185,
      "брака": 8186,
      "одновременно": 8187,
      "тром": 8188,
      "женный": 8189,
      "водят": 8190,
      "зуба": 8191,
      "Кали": 8192,
      "хорошем": 8193,
      "случаи": 8194,
      "кругу": 8195,
      "крутить": 8196,
      "одних": 8197,
      "Чтоб": 8198,
      "стрел": 8199,
      "армия": 8200,
      "ключ": 8201,
      "доброво": 8202,
      "исход": 8203,
      "исправить": 8204,
      "техника": 8205,
      "врачу": 8206,
      "проблемой": 8207,
      "срабаты": 8208,
      "рьез": 8209,
      "поликли": 8210,
      "политики": 8211,
      "банку": 8212,
      "получали": 8213,
      "продается": 8214,
      "марки": 8215,
      "месяце": 8216,
      "доставки": 8217,
      "получит": 8218,
      "всякую": 8219,
      "негры": 8220,
      "факты": 8221,
      "относятся": 8222,
      "Никаких": 8223,
      "этаж": 8224,
      "интервью": 8225,
      "РАН": 8226,
      "покупали": 8227,
      "покупатель": 8228,
      "Маши": 8229,
      "системой": 8230,
      "многим": 8231,
      "зелё": 8232,
      "аллер": 8233,
      "алгорит": 8234,
      "основе": 8235,
      "строительство": 8236,
      "ссал": 8237,
      "вкусно": 8238,
      "самим": 8239,
      "нормальной": 8240,
      "нормального": 8241,
      "единицы": 8242,
      "создают": 8243,
      "создание": 8244,
      "198": 8245,
      "офиге": 8246,
      "обязан": 8247,
      "зарплат": 8248,
      "пендо": 8249,
      "парке": 8250,
      "определя": 8251,
      "запретить": 8252,
      "тенден": 8253,
      "будущем": 8254,
      "показали": 8255,
      "итогу": 8256,
      "принципи": 8257,
      "работники": 8258,
      "подобных": 8259,
      "подобного": 8260,
      "ссылка": 8261,
      "убил": 8262,
      "убить": 8263,
      "позволит": 8264,
      "правоохрани": 8265,
      "должности": 8266,
      "Были": 8267,
      "унита": 8268,
      "деревя": 8269,
      "ученые": 8270,
      "Стас": 8271,
      "холодно": 8272,
      "попросил": 8273,
      "миллион": 8274,
      "сложности": 8275,
      "справа": 8276,
      "тексте": 8277,
      "Бес": 8278,
      "заказов": 8279,
      "берется": 8280,
      "советское": 8281,
      "организа": 8282,
      "исключением": 8283,
      "клоун": 8284,
      "программу": 8285,
      "секс": 8286,
      "запах": 8287,
      "западе": 8288,
      "производитель": 8289,
      "интересная": 8290,
      "собирается": 8291,
      "народов": 8292,
      "ступает": 8293,
      "красивый": 8294,
      "примеров": 8295,
      "мужиков": 8296,
      "российского": 8297,
      "российские": 8298,
      "указано": 8299,
      "контролировать": 8300,
      "ОООО": 8301,
      "автомати": 8302,
      "предлагает": 8303,
      "музыки": 8304,
      "Знаю": 8305,
      "САМО": 8306,
      "хозяин": 8307,
      "начнет": 8308,
      "руководитель": 8309,
      "жирный": 8310,
      "автомобиль": 8311,
      "дегенератов": 8312,
      "бумагу": 8313,
      "передачи": 8314,
      "снега": 8315,
      "видос": 8316,
      "грин": 8317,
      "одежды": 8318,
      "МЕН": 8319,
      "настоящий": 8320,
      "настоящее": 8321,
      "ark": 8322,
      "сфере": 8323,
      "обувь": 8324,
      "президен": 8325,
      "жалобу": 8326,
      "дурачок": 8327,
      "снаб": 8328,
      "ощущения": 8329,
      "обеспечения": 8330,
      "статистика": 8331,
      "статистики": 8332,
      "спрашивать": 8333,
      "сравнения": 8334,
      "принято": 8335,
      "хард": 8336,
      "служба": 8337,
      "имущество": 8338,
      "приложение": 8339,
      "поясни": 8340,
      "существования": 8341,
      "медицину": 8342,
      "Смотре": 8343,
      "верьте": 8344,
      "напрямую": 8345,
      "неплохой": 8346,
      "лишний": 8347,
      "политику": 8348,
      "СТЫ": 8349,
      "придумать": 8350,
      "ПЕР": 8351,
      "ежемеся": 8352,
      "современные": 8353,
      "воздуха": 8354,
      "заголов": 8355,
      "феврале": 8356,
      "поколение": 8357,
      "массово": 8358,
      "Комму": 8359,
      "Цена": 8360,
      "мелочи": 8361,
      "претензии": 8362,
      "телевизо": 8363,
      "сообщил": 8364,
      "контракт": 8365,
      "Гуру": 8366,
      "столкну": 8367,
      "Имхо": 8368,
      "русачков": 8369,
      "выгоднее": 8370,
      "подруга": 8371,
      "школьники": 8372,
      "категори": 8373,
      "тащить": 8374,
      "доходами": 8375,
      "охла": 8376,
      "поменял": 8377,
      "декабря": 8378,
      "бесплатные": 8379,
      "Филь": 8380,
      "деревья": 8381,
      "погиб": 8382,
      "востор": 8383,
      "четверг": 8384,
      "атмосфера": 8385,
      "иллю": 8386,
      "деталь": 8387,
      "деталей": 8388,
      "нефти": 8389,
      "лекарства": 8390,
      "работодатель": 8391,
      "воспомина": 8392,
      "цивилизации": 8393,
      "цивилизова": 8394,
      "регистрации": 8395,
      "шизик": 8396,
      "дцать": 8397,
      "дальнейшем": 8398,
      "мусора": 8399,
      "самозанятых": 8400,
      "капитализма": 8401,
      "Красно": 8402,
      "памят": 8403,
      "остановки": 8404,
      "демонстри": 8405,
      "пробовал": 8406,
      "бизнеса": 8407,
      "маркетинга": 8408,
      "конферен": 8409,
      "аватаркой": 8410,
      "тварь": 8411,
      "батарей": 8412,
      "book": 8413,
      "приема": 8414,
      "Смысл": 8415,
      "сердце": 8416,
      "Действительно": 8417,
      "непосредственно": 8418,
      "трипкодом": 8419,
      ",,": 8420,
      "140": 8421,
      "180": 8422,
      "31": 8423,
      "43": 8424,
      "46": 8425,
      "Dis": 8426,
      "ID": 8427,
      "OS": 8428,
      "RE": 8429,
      "Red": 8430,
      "ber": 8431,
      "iv": 8432,
      "pr": 8433,
      "the": 8434,
      "ww": 8435,
      "АУ": 8436,
      "БЯ": 8437,
      "Бра": 8438,
      "Бразили": 8439,
      "Гор": 8440,
      "Доба": 8441,
      "Еб": 8442,
      "Един": 8443,
      "Егор": 8444,
      "Зло": 8445,
      "Истекает": 8446,
      "КХ": 8447,
      "Ким": 8448,
      "Обя": 8449,
      "Пру": 8450,
      "ПЛА": 8451,
      "РР": 8452,
      "Рез": 8453,
      "Сра": 8454,
      "Сли": 8455,
      "Сло": 8456,
      "Сле": 8457,
      "Сказа": 8458,
      "СНЯ": 8459,
      "Спустя": 8460,
      "Тер": 8461,
      "Учи": 8462,
      "Фор": 8463,
      "Ше": 8464,
      "ЫЫ": 8465,
      "Эм": 8466,
      "Эта": 8467,
      "ЯТ": 8468,
      "ате": 8469,
      "аля": 8470,
      "анима": 8471,
      "ассо": 8472,
      "анекдо": 8473,
      "вна": 8474,
      "вко": 8475,
      "взы": 8476,
      "вят": 8477,
      "вход": 8478,
      "ввели": 8479,
      "ввести": 8480,
      "дна": 8481,
      "еве": 8482,
      "жы": 8483,
      "зме": 8484,
      "звать": 8485,
      "иные": 8486,
      "инет": 8487,
      "йки": 8488,
      "кви": 8489,
      "кнуть": 8490,
      "лл": 8491,
      "мла": 8492,
      "оми": 8493,
      "оса": 8494,
      "осмо": 8495,
      "озе": 8496,
      "пками": 8497,
      "рл": 8498,
      "сб": 8499,
      "сгу": 8500,
      "сная": 8501,
      "сделки": 8502,
      "сжечь": 8503,
      "тo": 8504,
      "тком": 8505,
      "упор": 8506,
      "удов": 8507,
      "удар": 8508,
      "ушел": 8509,
      "хру": 8510,
      "шбе": 8511,
      "шизм": 8512,
      "ьер": 8513,
      "эваку": 8514,
      "юр": 8515,
      "ялся": 8516,
      "толо": 8517,
      "нодоро": 8518,
      "неров": 8519,
      "немало": 8520,
      "нереально": 8521,
      "неизвестно": 8522,
      "полы": 8523,
      "подоро": 8524,
      "полом": 8525,
      "поток": 8526,
      "поиск": 8527,
      "поиска": 8528,
      "погугли": 8529,
      "раста": 8530,
      "коров": 8531,
      "косме": 8532,
      "корей": 8533,
      "нины": 8534,
      "нище": 8535,
      "кара": 8536,
      "капу": 8537,
      "какими": 8538,
      "реси": 8539,
      "решать": 8540,
      "гоп": 8541,
      "депута": 8542,
      "тач": 8543,
      "тацию": 8544,
      "воров": 8545,
      "вожу": 8546,
      "воню": 8547,
      "тет": 8548,
      "данной": 8549,
      "зало": 8550,
      "зажи": 8551,
      "завали": 8552,
      "заходит": 8553,
      "забор": 8554,
      "заработал": 8555,
      "забрал": 8556,
      "заморо": 8557,
      "заменить": 8558,
      "заблоки": 8559,
      "запуще": 8560,
      "заблу": 8561,
      "левые": 8562,
      "лечения": 8563,
      "лезут": 8564,
      "метри": 8565,
      "медве": 8566,
      "медиа": 8567,
      "мешок": 8568,
      "моря": 8569,
      "мостью": 8570,
      "дому": 8571,
      "довал": 8572,
      "доступа": 8573,
      "жену": 8574,
      "черы": 8575,
      "чечен": 8576,
      "верит": 8577,
      "прото": 8578,
      "профиль": 8579,
      "прошла": 8580,
      "прошёл": 8581,
      "протяже": 8582,
      "проводить": 8583,
      "проходил": 8584,
      "простая": 8585,
      "мали": 8586,
      "масс": 8587,
      "серия": 8588,
      "бот": 8589,
      "софи": 8590,
      "сотен": 8591,
      "сочета": 8592,
      "быто": 8593,
      "вия": 8594,
      "дика": 8595,
      "диод": 8596,
      "высер": 8597,
      "выставля": 8598,
      "вызывать": 8599,
      "вырази": 8600,
      "отдела": 8601,
      "отвали": 8602,
      "отдал": 8603,
      "кун": 8604,
      "пель": 8605,
      "лямов": 8606,
      "чае": 8607,
      "чанию": 8608,
      "сидя": 8609,
      "сирий": 8610,
      "силой": 8611,
      "чии": 8612,
      "чились": 8613,
      "стоп": 8614,
      "шево": 8615,
      "приводит": 8616,
      "пало": 8617,
      "сапо": 8618,
      "сажи": 8619,
      "обли": 8620,
      "безна": 8621,
      "бежать": 8622,
      "белым": 8623,
      "пила": 8624,
      "дур": 8625,
      "щений": 8626,
      "бумага": 8627,
      "бави": 8628,
      "гаться": 8629,
      "ньте": 8630,
      "жих": 8631,
      "житель": 8632,
      "жителей": 8633,
      "гита": 8634,
      "ниями": 8635,
      "жное": 8636,
      "сул": 8637,
      "прессо": 8638,
      "бий": 8639,
      "подло": 8640,
      "подбор": 8641,
      "подчер": 8642,
      "поддержа": 8643,
      "подходя": 8644,
      "подключе": 8645,
      "подключи": 8646,
      "рян": 8647,
      "жала": 8648,
      "комфорт": 8649,
      "инфу": 8650,
      "скан": 8651,
      "скар": 8652,
      "щими": 8653,
      "пун": 8654,
      "путин": 8655,
      "переди": 8656,
      "перейти": 8657,
      "работи": 8658,
      "вушка": 8659,
      "трей": 8660,
      "вернули": 8661,
      "худож": 8662,
      "шат": 8663,
      "шаются": 8664,
      "делала": 8665,
      "больни": 8666,
      "стену": 8667,
      "стесня": 8668,
      "стенько": 8669,
      "спорю": 8670,
      "фом": 8671,
      "конче": 8672,
      "консер": 8673,
      "консуль": 8674,
      "страх": 8675,
      "рассчита": 8676,
      "рассказать": 8677,
      "расчеты": 8678,
      "расходов": 8679,
      "первым": 8680,
      "ктором": 8681,
      "обществе": 8682,
      "ровку": 8683,
      "ровке": 8684,
      "другу": 8685,
      "сына": 8686,
      "летво": 8687,
      "летний": 8688,
      "летняя": 8689,
      "геров": 8690,
      "ходим": 8691,
      "Нур": 8692,
      "возму": 8693,
      "тельстве": 8694,
      "краю": 8695,
      "края": 8696,
      "второе": 8697,
      "вскую": 8698,
      "блением": 8699,
      "чува": 8700,
      "чурки": 8701,
      "строен": 8702,
      "пые": 8703,
      "работаешь": 8704,
      "насчёт": 8705,
      "20к": 8706,
      "2010": 8707,
      "предназна": 8708,
      "предпочита": 8709,
      "остаться": 8710,
      "останутся": 8711,
      "ездят": 8712,
      "рованных": 8713,
      "нихера": 8714,
      "шой": 8715,
      "брала": 8716,
      "браться": 8717,
      "годах": 8718,
      "годами": 8719,
      "нейро": 8720,
      "нейший": 8721,
      "зывают": 8722,
      "правит": 8723,
      "правильный": 8724,
      "Какую": 8725,
      "Капита": 8726,
      "хорошую": 8727,
      "автору": 8728,
      "хик": 8729,
      "шутки": 8730,
      "выебы": 8731,
      "ждается": 8732,
      "фами": 8733,
      "Причём": 8734,
      "городу": 8735,
      "добро": 8736,
      "водил": 8737,
      "водителей": 8738,
      "торрен": 8739,
      "сказано": 8740,
      "русскоязы": 8741,
      "точной": 8742,
      "альбо": 8743,
      "военные": 8744,
      "почта": 8745,
      "почку": 8746,
      "правду": 8747,
      "четко": 8748,
      "полиция": 8749,
      "политика": 8750,
      "получаешь": 8751,
      "обычным": 8752,
      "Совер": 8753,
      "хохлами": 8754,
      "понимаете": 8755,
      "делец": 8756,
      "2012": 8757,
      "объяви": 8758,
      "всяком": 8759,
      "всякого": 8760,
      "НАЯ": 8761,
      "паралле": 8762,
      "фактов": 8763,
      "здание": 8764,
      "звонок": 8765,
      "головного": 8766,
      "купила": 8767,
      "рандом": 8768,
      "сделала": 8769,
      "сделаешь": 8770,
      "школах": 8771,
      "учителя": 8772,
      "двину": 8773,
      "КАЙ": 8774,
      "покупает": 8775,
      "низкий": 8776,
      "Само": 8777,
      "удалить": 8778,
      "пойду": 8779,
      "черный": 8780,
      "грев": 8781,
      "цуз": 8782,
      "фотошо": 8783,
      "строительства": 8784,
      "доволен": 8785,
      "надё": 8786,
      "надзор": 8787,
      "открыто": 8788,
      "взры": 8789,
      "связ": 8790,
      "высоких": 8791,
      "созданию": 8792,
      "сняли": 8793,
      "ставка": 8794,
      "Госпо": 8795,
      "лким": 8796,
      "списка": 8797,
      "экономика": 8798,
      "экономики": 8799,
      "родителям": 8800,
      "решила": 8801,
      "ответить": 8802,
      "будучи": 8803,
      "ВАТЬ": 8804,
      "личного": 8805,
      "подобной": 8806,
      "Между": 8807,
      "ссылку": 8808,
      "называет": 8809,
      "оплату": 8810,
      "шлак": 8811,
      "начинать": 8812,
      "позволяют": 8813,
      "закрыли": 8814,
      "должность": 8815,
      "коммунизма": 8816,
      "книг": 8817,
      "облада": 8818,
      "соседи": 8819,
      "тупое": 8820,
      "использует": 8821,
      "удобный": 8822,
      "Систе": 8823,
      "улица": 8824,
      "попробуй": 8825,
      "словах": 8826,
      "ДЕР": 8827,
      "предложения": 8828,
      "постара": 8829,
      "добавил": 8830,
      "числения": 8831,
      "программы": 8832,
      "производители": 8833,
      "маленьких": 8834,
      "интересные": 8835,
      "чувствовать": 8836,
      "one": 8837,
      "внимания": 8838,
      "продолжает": 8839,
      "штрафовать": 8840,
      "онеров": 8841,
      "рамки": 8842,
      "лахта": 8843,
      "ДОЛ": 8844,
      "стойчи": 8845,
      "подпись": 8846,
      "показывали": 8847,
      "половине": 8848,
      "обидно": 8849,
      "российский": 8850,
      "указаны": 8851,
      "симпа": 8852,
      "признать": 8853,
      "обсуждать": 8854,
      "ООН": 8855,
      "сотрудни": 8856,
      "аноны": 8857,
      "угле": 8858,
      "помещения": 8859,
      "картину": 8860,
      "САМ": 8861,
      "ютуба": 8862,
      "убеди": 8863,
      "талитар": 8864,
      "энергия": 8865,
      "постинг": 8866,
      "пользователь": 8867,
      "acc": 8868,
      "all": 8869,
      "описал": 8870,
      "описание": 8871,
      "биологи": 8872,
      "доллара": 8873,
      "территория": 8874,
      "бутылки": 8875,
      "сегодняш": 8876,
      "покупку": 8877,
      "писывают": 8878,
      "старше": 8879,
      "инструмента": 8880,
      "приложения": 8881,
      "оскорбля": 8882,
      "методи": 8883,
      "комнате": 8884,
      "комнаты": 8885,
      "кнове": 8886,
      "богат": 8887,
      "отношению": 8888,
      "сомнения": 8889,
      "госпита": 8890,
      "гомофор": 8891,
      "вернуться": 8892,
      "способы": 8893,
      "способен": 8894,
      "аренду": 8895,
      "теоре": 8896,
      "Другие": 8897,
      "счету": 8898,
      "теряет": 8899,
      "превраща": 8900,
      "воздух": 8901,
      "установки": 8902,
      "потерял": 8903,
      "социализм": 8904,
      "нагрузки": 8905,
      "нагрузку": 8906,
      "шансы": 8907,
      "большинства": 8908,
      "евреев": 8909,
      "отече": 8910,
      "исполни": 8911,
      "наличия": 8912,
      "схемы": 8913,
      "бьют": 8914,
      "здорово": 8915,
      "формули": 8916,
      "различные": 8917,
      "компьютер": 8918,
      "кадзе": 8919,
      "отдельных": 8920,
      "ституции": 8921,
      "инженер": 8922,
      "Израиле": 8923,
      "АААААААА": 8924,
      "металли": 8925,
      "проекти": 8926,
      "синхро": 8927,
      "ступень": 8928,
      "тащил": 8929,
      "сигнала": 8930,
      "уменьшить": 8931,
      "Газ": 8932,
      "пиндосы": 8933,
      "Петро": 8934,
      "профит": 8935,
      "простые": 8936,
      "левац": 8937,
      "начальника": 8938,
      "архитек": 8939,
      "затраты": 8940,
      "рассуждать": 8941,
      "функции": 8942,
      "реагирует": 8943,
      "Прямо": 8944,
      "разбираться": 8945,
      "представитель": 8946,
      "ребёнок": 8947,
      "СУКА": 8948,
      "ыыыы": 8949,
      "нефть": 8950,
      "работодателя": 8951,
      "студентов": 8952,
      "жжжжжжжжжжжжжжжж": 8953,
      "окончательно": 8954,
      "воспользо": 8955,
      "чувствую": 8956,
      "включить": 8957,
      "секрет": 8958,
      "фамилия": 8959,
      "топливо": 8960,
      "холодильник": 8961,
      "маршрутки": 8962,
      "схем": 8963,
      "Франции": 8964,
      "поехавший": 8965,
      "мечта": 8966,
      "расстояние": 8967,
      "фантазии": 8968,
      "Яндекс": 8969,
      "нюансы": 8970,
      "комфортно": 8971,
      "спонси": 8972,
      "откровенно": 8973,
      "эксплуатации": 8974,
      "сэкономить": 8975,
      "изделий": 8976,
      "светодиодов": 8977,
      "заставляет": 8978,
      "перевозки": 8979,
      "распределе": 8980,
      "альтернати": 8981,
      "Рядом": 8982,
      "Хочешь": 8983,
      "аккау": 8984,
      "предметы": 8985,
      "последствий": 8986,
      "вентиля": 8987,
      "Харь": 8988,
      "просмотров": 8989,
      "собесед": 8990,
      "Видел": 8991,
      "рентген": 8992,
      "Австра": 8993,
      "Навального": 8994,
      "Российской": 8995,
      "восстановить": 8996,
      "htt": 8997,
      "зарубе": 8998,
      "банкрот": 8999,
      "перёд": 9000,
      "хобби": 9001,
      "Злоупотребление": 9002,
      ".?": 9003,
      "03": 9004,
      "09": 9005,
      "41": 9006,
      "58": 9007,
      "85": 9008,
      ":-)": 9009,
      "An": 9010,
      "EB": 9011,
      "In": 9012,
      "ak": 9013,
      "ax": 9014,
      "ct": 9015,
      "cri": 9016,
      "ig": 9017,
      "mes": 9018,
      "od": 9019,
      "pa": 9020,
      "sun": 9021,
      "tic": 9022,
      "um": 9023,
      "you": 9024,
      "Ак": 9025,
      "Аф": 9026,
      "Аналоги": 9027,
      "Афри": 9028,
      "Бре": 9029,
      "ВМ": 9030,
      "Вчера": 9031,
      "Впрочем": 9032,
      "Гоб": 9033,
      "ЖНО": 9034,
      "ИХ": 9035,
      "Ино": 9036,
      "Испа": 9037,
      "Итали": 9038,
      "Исклю": 9039,
      "Кре": 9040,
      "Клю": 9041,
      "ЛСЯ": 9042,
      "Многие": 9043,
      "Нуже": 9044,
      "Оде": 9045,
      "Оби": 9046,
      "РД": 9047,
      "РТ": 9048,
      "Ры": 9049,
      "Рен": 9050,
      "Сы": 9051,
      "СНГ": 9052,
      "Тред": 9053,
      "Тран": 9054,
      "ТРИ": 9055,
      "Ух": 9056,
      "Увы": 9057,
      "Хва": 9058,
      "атом": 9059,
      "бет": 9060,
      "вл": 9061,
      "вных": 9062,
      "вский": 9063,
      "вставля": 9064,
      "вклады": 9065,
      "вшую": 9066,
      "вмеша": 9067,
      "дря": 9068,
      "дёр": 9069,
      "емость": 9070,
      "жней": 9071,
      "жёл": 9072,
      "ждё": 9073,
      "зв": 9074,
      "зды": 9075,
      "истре": 9076,
      "крова": 9077,
      "лжи": 9078,
      "мск": 9079,
      "мёт": 9080,
      "мрази": 9081,
      "нцы": 9082,
      "оку": 9083,
      "очко": 9084,
      "псе": 9085,
      "пча": 9086,
      "ртом": 9087,
      "рёт": 9088,
      "слю": 9089,
      "спуска": 9090,
      "сгоре": 9091,
      "уто": 9092,
      "уса": 9093,
      "умы": 9094,
      "усы": 9095,
      "убира": 9096,
      "ушло": 9097,
      "уходят": 9098,
      "умол": 9099,
      "убирать": 9100,
      "устроили": 9101,
      "чон": 9102,
      "чников": 9103,
      "ьте": 9104,
      "япо": 9105,
      "ёк": 9106,
      "тоталитар": 9107,
      "ночки": 9108,
      "ностей": 9109,
      "нал": 9110,
      "нава": 9111,
      "нала": 9112,
      "насы": 9113,
      "нашу": 9114,
      "накру": 9115,
      "нашла": 9116,
      "настраи": 9117,
      "нением": 9118,
      "некуда": 9119,
      "пох": 9120,
      "попо": 9121,
      "пони": 9122,
      "поту": 9123,
      "покра": 9124,
      "понадо": 9125,
      "подать": 9126,
      "позор": 9127,
      "рашка": 9128,
      "стка": 9129,
      "стных": 9130,
      "стят": 9131,
      "стрю": 9132,
      "кои": 9133,
      "коко": 9134,
      "коре": 9135,
      "коже": 9136,
      "ковая": 9137,
      "линия": 9138,
      "лился": 9139,
      "лизация": 9140,
      "рече": 9141,
      "реки": 9142,
      "горы": 9143,
      "горят": 9144,
      "гостей": 9145,
      "вателя": 9146,
      "дева": 9147,
      "дебето": 9148,
      "танки": 9149,
      "воспи": 9150,
      "льт": 9151,
      "теро": 9152,
      "тесто": 9153,
      "тение": 9154,
      "дах": 9155,
      "даты": 9156,
      "заре": 9157,
      "зага": 9158,
      "заставить": 9159,
      "зашёл": 9160,
      "заинтересо": 9161,
      "рины": 9162,
      "ловит": 9163,
      "лечение": 9164,
      "летел": 9165,
      "меж": 9166,
      "менно": 9167,
      "лакти": 9168,
      "мона": 9169,
      "мочу": 9170,
      "мосту": 9171,
      "моделе": 9172,
      "доле": 9173,
      "дога": 9174,
      "довать": 9175,
      "дохрена": 9176,
      "доказывать": 9177,
      "жели": 9178,
      "женно": 9179,
      "веж": 9180,
      "вега": 9181,
      "веща": 9182,
      "вечер": 9183,
      "проф": 9184,
      "проме": 9185,
      "простра": 9186,
      "прожить": 9187,
      "просит": 9188,
      "прошли": 9189,
      "прочитать": 9190,
      "маз": 9191,
      "мана": 9192,
      "мане": 9193,
      "масси": 9194,
      "сея": 9195,
      "сели": 9196,
      "сент": 9197,
      "совать": 9198,
      "собрал": 9199,
      "бывало": 9200,
      "вины": 9201,
      "дий": 9202,
      "выли": 9203,
      "выби": 9204,
      "выдер": 9205,
      "вышла": 9206,
      "отдали": 9207,
      "отменить": 9208,
      "отменяет": 9209,
      "кут": 9210,
      "куса": 9211,
      "педа": 9212,
      "пети": 9213,
      "чами": 9214,
      "чалось": 9215,
      "станци": 9216,
      "станут": 9217,
      "сий": 9218,
      "сия": 9219,
      "сильный": 9220,
      "чинить": 9221,
      "муз": 9222,
      "придет": 9223,
      "придут": 9224,
      "прибли": 9225,
      "прикол": 9226,
      "приведе": 9227,
      "присоеди": 9228,
      "привел": 9229,
      "пригоди": 9230,
      "нутри": 9231,
      "пана": 9232,
      "пами": 9233,
      "патро": 9234,
      "пачки": 9235,
      "парази": 9236,
      "излу": 9237,
      "израи": 9238,
      "обжа": 9239,
      "образу": 9240,
      "обид": 9241,
      "общий": 9242,
      "обновле": 9243,
      "рыб": 9244,
      "рыбы": 9245,
      "бее": 9246,
      "беше": 9247,
      "бесит": 9248,
      "бетон": 9249,
      "белой": 9250,
      "безнали": 9251,
      "циа": 9252,
      "пинг": 9253,
      "дурок": 9254,
      "разду": 9255,
      "разной": 9256,
      "няк": 9257,
      "всерьез": 9258,
      "бать": 9259,
      "басса": 9260,
      "гало": 9261,
      "живать": 9262,
      "льному": 9263,
      "слил": 9264,
      "слился": 9265,
      "цефа": 9266,
      "целая": 9267,
      "суки": 9268,
      "скидкой": 9269,
      "подни": 9270,
      "подли": 9271,
      "подчи": 9272,
      "подвер": 9273,
      "подготов": 9274,
      "актри": 9275,
      "Поз": 9276,
      "Пой": 9277,
      "Пона": 9278,
      "Поро": 9279,
      "Посмотрел": 9280,
      "праведли": 9281,
      "комменты": 9282,
      "инфо": 9283,
      "инфы": 9284,
      "пухо": 9285,
      "значение": 9286,
      "переводить": 9287,
      "переписки": 9288,
      "платье": 9289,
      "детство": 9290,
      "детские": 9291,
      "фишка": 9292,
      "шаг": 9293,
      "шай": 9294,
      "делай": 9295,
      "стене": 9296,
      "конден": 9297,
      "хами": 9298,
      "зил": 9299,
      "ствовали": 9300,
      "общественных": 9301,
      "траву": 9302,
      "трафик": 9303,
      "времё": 9304,
      "друж": 9305,
      "сыла": 9306,
      "смотра": 9307,
      "летние": 9308,
      "летней": 9309,
      "служить": 9310,
      "гемор": 9311,
      "возили": 9312,
      "влении": 9313,
      "ссией": 9314,
      "сква": 9315,
      "скром": 9316,
      "сквозь": 9317,
      "термо": 9318,
      "безработи": 9319,
      "читала": 9320,
      "действу": 9321,
      "резь": 9322,
      "ровано": 9323,
      "рованы": 9324,
      "рованного": 9325,
      "глазы": 9326,
      "циям": 9327,
      "спект": 9328,
      "10к": 9329,
      "началу": 9330,
      "начались": 9331,
      "началась": 9332,
      "Которы": 9333,
      "хороши": 9334,
      "хорошей": 9335,
      "хуйни": 9336,
      "хивает": 9337,
      "тяжё": 9338,
      "ждают": 9339,
      "фарма": 9340,
      "фашизм": 9341,
      "кругом": 9342,
      "цыга": 9343,
      "говорим": 9344,
      "Примерно": 9345,
      "обоих": 9346,
      "обоснова": 9347,
      "пизди": 9348,
      "логике": 9349,
      "темно": 9350,
      "добрый": 9351,
      "водится": 9352,
      "интереса": 9353,
      "интересы": 9354,
      "интересен": 9355,
      "военный": 9356,
      "менил": 9357,
      "срать": 9358,
      "считаются": 9359,
      "считаешь": 9360,
      "рья": 9361,
      "ждением": 9362,
      "полит": 9363,
      "банди": 9364,
      "продали": 9365,
      "продажу": 9366,
      "продавец": 9367,
      "пидоров": 9368,
      "марте": 9369,
      "доставку": 9370,
      "собственные": 9371,
      "понимал": 9372,
      "понимание": 9373,
      "твоим": 9374,
      "средство": 9375,
      "средний": 9376,
      "немцы": 9377,
      "2011": 9378,
      "объё": 9379,
      "объём": 9380,
      "объеди": 9381,
      "жопой": 9382,
      "всякое": 9383,
      "вопросом": 9384,
      "последствия": 9385,
      "Ваша": 9386,
      "снизу": 9387,
      "звонить": 9388,
      "смеши": 9389,
      "Нихуя": 9390,
      "ехала": 9391,
      "этажа": 9392,
      "движу": 9393,
      "глядя": 9394,
      "КАЯ": 9395,
      "РАБО": 9396,
      "кримина": 9397,
      "Хочу": 9398,
      "Отве": 9399,
      "давности": 9400,
      "покупателя": 9401,
      "земель": 9402,
      "основная": 9403,
      "Венеры": 9404,
      "2009": 9405,
      "частных": 9406,
      "едино": 9407,
      "высокий": 9408,
      "владелец": 9409,
      "новом": 9410,
      "вайся": 9411,
      "создал": 9412,
      "реальность": 9413,
      "умере": 9414,
      "молока": 9415,
      "обычном": 9416,
      "стриме": 9417,
      "Гос": 9418,
      "провести": 9419,
      "Питер": 9420,
      "экономически": 9421,
      "норми": 9422,
      "парни": 9423,
      "подавать": 9424,
      "броса": 9425,
      "толком": 9426,
      "использовании": 9427,
      "плит": 9428,
      "Интер": 9429,
      "канала": 9430,
      "запрещает": 9431,
      "тенси": 9432,
      "тысячу": 9433,
      "полномо": 9434,
      "ВАЛИ": 9435,
      "специальные": 9436,
      "длины": 9437,
      "фунда": 9438,
      "личности": 9439,
      "городке": 9440,
      "международ": 9441,
      "солдат": 9442,
      "подобная": 9443,
      "называли": 9444,
      "свободный": 9445,
      "смотр": 9446,
      "условиям": 9447,
      "убивать": 9448,
      "магазинов": 9449,
      "учре": 9450,
      "лампы": 9451,
      "лампочки": 9452,
      "закрыть": 9453,
      "иностра": 9454,
      "иностран": 9455,
      "мужской": 9456,
      "коробки": 9457,
      "проблемах": 9458,
      "Стар": 9459,
      "Стали": 9460,
      "улицы": 9461,
      "умственно": 9462,
      "миллионы": 9463,
      "языком": 9464,
      "Бела": 9465,
      "предложили": 9466,
      "емым": 9467,
      "лизма": 9468,
      "организовать": 9469,
      "страховая": 9470,
      "ошибок": 9471,
      "секса": 9472,
      "запас": 9473,
      "оказались": 9474,
      "соверше": 9475,
      "интересный": 9476,
      "кредитки": 9477,
      "Люби": 9478,
      "ландии": 9479,
      "Купил": 9480,
      "занятия": 9481,
      "психоло": 9482,
      "лайна": 9483,
      "совету": 9484,
      "культура": 9485,
      "собственной": 9486,
      "собственность": 9487,
      "китайские": 9488,
      "найдешь": 9489,
      "двигаться": 9490,
      "отопление": 9491,
      "упасть": 9492,
      "необходимость": 9493,
      "!!!!!!!!": 9494,
      "российской": 9495,
      "обсуждение": 9496,
      "контроля": 9497,
      "анонов": 9498,
      "рассказ": 9499,
      "сорта": 9500,
      "предлагать": 9501,
      "комплекс": 9502,
      "комплекса": 9503,
      "клиентам": 9504,
      "реакции": 9505,
      "Типи": 9506,
      "комментарий": 9507,
      "кредиты": 9508,
      "Хорошая": 9509,
      "режима": 9510,
      "украинского": 9511,
      "цифра": 9512,
      "охраны": 9513,
      "сервисы": 9514,
      "противополо": 9515,
      "изменилось": 9516,
      "ционер": 9517,
      "проводов": 9518,
      "размером": 9519,
      "гарантия": 9520,
      "гарантий": 9521,
      "слышали": 9522,
      "петушок": 9523,
      "американцы": 9524,
      "ate": 9525,
      "ation": 9526,
      "третьих": 9527,
      "цветов": 9528,
      "Логи": 9529,
      "покупке": 9530,
      "статистику": 9531,
      "критично": 9532,
      "вспомни": 9533,
      "известный": 9534,
      "приняли": 9535,
      "публично": 9536,
      "элементов": 9537,
      "поддерживает": 9538,
      "медицин": 9539,
      "медицина": 9540,
      "ооочень": 9541,
      "напряжения": 9542,
      "источники": 9543,
      "мощности": 9544,
      "отрасли": 9545,
      "ебанутый": 9546,
      "гомосексу": 9547,
      "девочки": 9548,
[...]
